0004
0002
0001
fffe
fff7
0006
fff7
0002
0004
0001
fff9
fffd
00b9
016d
0129
0029
fff8
0001
fffc
fff9
ffff
fffd
0003
0007
fff7
fffd
0002
ffff
fffa
0004
0006
0005
ffaf
ff6c
ff79
ff36
ff24
fed0
0118
01ea
011d
01e4
ff39
fcf6
0039
0194
0360
ffd4
ff29
ffd0
ffd9
ff9a
fffb
0003
0001
0001
0000
0002
0052
00b8
00e0
ff9c
006a
ff73
0273
03f6
044b
0470
0317
ffc8
01e7
fcc5
fd56
ff45
fe46
ff72
feb3
0012
ff74
fe82
0078
fffa
fff7
0000
0007
fffc
00ab
fee6
ff1d
ffdd
ff6f
027f
03ee
0271
0079
02fa
fff2
00e8
019f
0004
0084
00d1
ff3d
ffed
fec7
fe14
fdf6
ff19
02bc
fe45
ff38
fffb
0001
ffed
0209
fddd
00d4
0017
01d2
00ee
01aa
018e
017e
ff92
0071
0090
0010
fef1
ffac
00a1
ff0a
ff9f
002d
ffe0
ff24
fea6
fcbb
fd11
fd74
02bb
0004
fffe
01fd
feb3
ff7b
fd31
ff1b
ffda
ff8d
ffc2
0101
ffd1
ffae
0037
0004
0073
fffb
ffa4
011d
0132
ffd3
ffed
fe5e
00ca
006c
ff2c
fe87
0273
fffc
001d
0224
0054
0267
ff6d
fe75
008c
fe96
ff09
ff79
ff23
fedb
ffca
ffcd
fffd
00b3
ffbe
0079
ff82
ff52
fee5
ff8b
fdfe
fee3
fde1
fb1d
fde9
0000
0135
000e
fc71
01fe
ffde
0058
003f
ff1e
ff8b
ff33
00f8
ff92
ffc3
ffc2
ffd7
ff0f
ff95
0086
000c
ff3a
003b
0099
fe7b
fe61
fef1
fd43
fc91
01b9
03c2
0154
fe18
fec6
febf
ff82
ff6f
ff08
fec1
fff6
fef3
ff4f
feb2
ff8b
008a
010a
003b
ff66
ffa1
ff46
009f
febb
ff17
fadc
fd9b
fe2a
fcf8
0007
fef8
0005
0116
0088
feb2
fe25
fef8
feaf
fed1
ffc9
ff04
ffd7
00b1
ff65
0098
004e
fe74
0053
003e
0063
002b
fe9a
fe6a
fcef
fa50
fd4c
ff58
000f
ff20
ff20
0317
fe6b
00f2
ffc9
fed3
febf
ffd2
fe78
feae
feb4
ff01
fdc7
fe95
009b
0094
ffb7
ff0c
fed9
ff16
ff6f
0001
fe24
fc74
feeb
feac
000e
00f2
fed2
01ce
fccb
00bf
00ca
ff3f
feee
fe88
ff1c
ffa2
ffab
ff55
fdd0
fd32
ff75
0013
ff32
0190
ff31
0022
0043
fe9d
fda7
fe7f
fb1b
fec0
ffdc
ff5b
ff33
0130
fe78
fd56
fe05
fdab
ff43
006f
ff64
00d7
fff3
feb6
fee1
fd6b
fed0
ff74
fef2
0072
ffe7
00e5
00de
ffce
fe56
fe33
fcb3
fe9a
ffd9
fffb
fe75
00e7
ffd4
fec3
fee7
ffa1
0068
0044
0139
ff20
ff39
ff79
ff8b
fea4
ff7e
0061
0035
0001
ff5a
fffe
008a
024f
0160
0287
0088
0129
0026
fdde
fcec
ffa9
02b2
ffea
0164
0187
ff84
009d
005b
0086
002a
ff51
fed6
fea3
fef7
ffea
00c0
0042
0093
0146
01e6
00df
0240
02da
016a
01c8
002d
fe71
fe18
fef7
0334
00b3
00e5
016a
006f
0030
0100
005c
ff7e
ffe4
ff36
ff07
0046
ffed
fffd
00b5
004a
0109
00fc
00a8
012e
02ce
037b
03fa
0010
00a7
00bc
ff93
0120
0229
008a
0050
0093
00fc
0159
01a6
ff4e
ff9f
ff88
ff71
017e
0116
0114
00fa
01af
005e
00ca
0184
ffb7
0158
0492
03f7
ffff
fcde
0271
006a
0009
015b
0078
01f6
0217
012e
01ef
0150
0034
ffb3
ffb7
fff8
00d7
011e
00c5
010a
0039
ffaf
0180
fff4
fdd2
020d
0213
0305
ffab
fcca
ff95
ff83
0113
ffad
009f
0129
0117
00b0
00b4
009f
0179
009a
00c7
0051
ffbb
ffe1
0146
002d
0070
00eb
00bb
ffcd
0151
02b9
ff2e
0462
ffe0
0229
ff0b
feee
00c5
0039
ffeb
019a
00b9
0090
0100
01f5
02b4
0123
0185
0062
0091
008a
006a
00dd
0056
00fb
0283
011a
0043
00e3
0415
00cf
0008
0235
008c
0006
0173
00b2
0038
0126
ff77
00ba
00e2
00ec
0053
ff99
012d
00a0
00f5
ffeb
ffcf
00c2
fffc
00cb
0164
00e3
0064
00b7
03a8
ffd9
ffdc
014b
01bd
001b
ff17
0051
ff97
ffda
ffe0
0086
ffb6
ff7e
00b0
00a4
0029
004c
00e8
0031
001c
00d9
ffc4
ffa9
0171
010f
00df
00a5
034f
00e8
ffda
ff95
0187
ff95
0066
007e
004a
003f
ffc8
fff8
00a8
0056
00c8
0042
ff05
0079
00be
ffd3
ff8e
ffd2
ffa8
013e
fff6
002e
0230
fed7
fc24
0157
fff8
0005
028a
0087
fe7f
ff97
ffa8
00a5
00e6
ffcd
fedf
ffa6
fff1
ffee
ffc4
0040
fe64
fff1
00ff
019a
ffae
0108
0294
01aa
feac
fbeb
fa91
0006
0004
0005
fd29
fe86
ff5c
fd6e
fde6
ff43
ff26
fee5
fe3a
ffb9
0094
fe5e
ff7e
0158
002e
0043
0110
ff31
fecf
fef4
0217
0245
02af
04c3
0464
0006
0005
0006
0253
fe5c
02db
0134
fe3d
fab1
fb92
fd5c
fea3
fceb
fa68
fd41
fb4c
f9fa
fd4a
fd2d
ff09
00fc
0032
00f0
ffac
fe0b
fc52
04b7
0494
fffb
0001
fffe
0002
008c
0465
038a
03d3
03a8
fe39
fe20
ff9f
0159
036f
013f
fe6c
fe0a
fed5
ffa4
ff71
ff9b
0062
feb8
fee8
002a
0070
ff90
0003
0005
0008
0009
0002
fffb
ffc7
ffc8
0084
0096
007d
006b
fe6b
feac
0073
006b
001d
fed0
ffdb
fee2
fefa
ff4b
01f7
ff39
fea1
fcb6
0006
0005
fff8
0007
fffb
fffa
0002
0008
fff9
fffb
fffc
0009
0001
0004
0007
fffa
0000
fff8
ffff
fff8
0002
fffa
0001
fffe
0009
0005
fffb
fff9
0003
0009
fffb
fffd
fffe
0007
0003
0004
0004
0002
fffe
012b
0008
003a
0045
003b
00e7
014b
029e
017f
fd48
fdb5
02d3
03de
01ac
002e
0044
fff8
fffa
fff9
0004
fffd
0004
fffe
006f
0005
0131
008d
ffff
001e
feb0
fc88
fc42
00c7
ffb8
fec4
00aa
021e
0202
001c
0122
0125
0001
009d
01ef
ff36
fe57
ff29
0007
0007
0003
fffa
fd46
fd65
0188
014e
0092
0143
fe20
fe0d
fc70
fef7
fe53
fda7
ff47
ff3b
0027
009c
ff97
ffdd
00a0
00f9
0139
ff35
ff56
fede
fff5
0008
fffa
0008
fd05
fd11
ffc5
0111
feb2
fdc9
fb7c
ff51
fdab
ff8c
feb3
ff28
fede
ff38
ffcc
ff48
fedc
fff7
0080
0011
ffae
00e0
ff81
ff0e
00af
02c3
fffd
fff8
fe12
fd37
ffc9
0020
fc34
fde1
fccd
fee8
fe93
003b
002b
ffc3
0137
0016
ffd0
005b
fe5c
ff1d
007a
fe2d
ff38
fe17
ffb5
ff7e
0326
0291
0009
fdf6
01b7
ffe6
fcc9
ff51
ff94
ff21
fee8
ff80
fed5
ff54
0001
ff85
0038
ff5d
ff76
000d
0005
011c
0216
0096
00f2
025e
ffc1
0097
01e5
0079
fffa
fde1
016f
0016
fdf5
0013
fe04
fe6f
ff6a
ffcb
007d
00c7
ffe6
ff7e
0004
0078
fef6
ffe3
0093
ff5d
00c0
00b9
0194
0123
fdf4
ff39
03af
01a1
ffcc
fe7e
00a8
00fb
003f
fe97
fdbe
ff03
00c0
00ad
ff70
ffec
0096
0148
00a5
0118
0099
0145
00cf
0115
0123
01f3
00f4
0108
01c7
ff45
02e9
02c6
ffcb
000e
00c8
00c7
01b3
fea3
0020
ff37
ff59
007d
ffe9
003c
0004
0045
00ce
001f
003d
007d
01cc
016c
018f
0263
019b
009c
0525
03fc
0133
ff6c
ffc2
0047
0137
ff10
010d
ff75
005e
0011
fe34
ffaf
008b
ff67
0091
ffc6
000f
ff30
fda3
fcd6
ff4b
00ab
0105
02f6
02cf
030b
0451
0158
030b
fec0
ffcd
0005
0003
0007
0047
0057
0054
ffc8
ff13
fe72
ffa4
ff70
ff9d
0025
ff73
fe66
fe53
fc47
fbdc
fbf1
fc07
00cb
00b3
00a8
012a
03f8
011c
014a
fffc
0109
01be
0180
ff06
ff7b
fec9
004f
00b5
000b
ffd5
0090
ff18
00cf
009f
ffa7
fe57
fe03
fba1
f758
f73b
f8b9
f8a2
f9c1
fb80
0167
0366
fe58
0016
016b
01c3
0060
00c7
008e
0117
0057
ff48
ffde
ff6f
0003
011c
001a
00b6
0051
ffb2
0046
0049
011e
fb57
f983
f870
f8bc
f7de
fc5d
fede
ffea
01df
0050
005b
fe43
01ef
fefb
ffb9
ff82
ff7d
000c
0026
005a
ffd3
000e
00f0
007d
0056
fee5
ff63
009a
00f7
fe99
fac1
f8f4
f907
fd86
ff82
ffec
0161
fff9
01d0
ff42
00de
01b6
005d
0112
0034
0177
0021
ff65
00c5
ff5d
004e
0056
ff9c
0043
014c
0083
0027
ffe4
fd91
fa48
fbe0
fe9d
fd62
ffee
fff6
003d
ff2c
ff4a
0098
00f6
ff66
ffc2
ffb1
0043
0021
002d
00c0
fffc
00e3
011f
0092
00ba
ffc2
fffb
fee6
fff6
ff85
0063
fc90
fc19
fe7b
fe7e
fffd
fff1
fef3
01ff
0010
ffe8
fe6c
ffc3
ffb4
fff1
005f
fff2
0000
ffeb
003e
0149
005f
0013
0061
009c
009f
fffa
00eb
ff5b
ff87
ff89
0203
fc6f
ffa4
ff95
ff5c
013a
ff17
fe09
0021
00c9
ff99
0074
feff
ffb9
0186
0082
00c8
0080
0021
00e6
0042
0066
ffd9
ffa1
fe97
fe27
fbe0
003d
0495
feaa
000b
ffcf
fed1
fd9f
fec3
0035
0078
ffe8
002b
ff85
ffad
ffac
00aa
0044
00c9
0106
ff8a
0034
00d2
ffdc
00f2
014d
ffd0
fd34
f928
fed2
00c5
017e
fff9
ff67
ffd1
fc7e
fd65
002c
0037
0018
00c6
ff5f
013a
008f
ffeb
ffa2
ffd8
ff62
ffcf
00d9
ffc0
0032
ff7c
ff1a
0069
006f
fb8c
fd30
0125
00d2
ff70
ff0a
003f
fbc6
00b6
0119
000a
001a
001c
0056
ffdf
0043
005a
00d2
007d
00ae
ff93
00d7
ff73
ff77
006a
fede
008f
00ba
fbbc
fde0
fe65
0007
ff75
ff64
ff4f
fbaf
ff9c
fe2b
ff96
ffed
002a
010d
0044
0033
0177
0063
011a
00cb
0053
0062
ffb4
006a
00c3
ff9a
fef2
ffd1
ff26
00f3
fd7d
0001
0001
0000
feab
fddf
0058
00b0
0079
feea
005d
007a
00e3
fff1
0135
ff4d
015e
003d
fff2
005c
ff93
ffe2
00cb
fffa
fedc
ff80
fe71
fe7b
fd6a
0002
0007
0004
ff0b
fdd3
fab2
fdbc
fe01
fe62
ff2e
ffea
ff4d
ff92
0088
0077
0020
0167
00c8
ffe2
018f
fe22
0071
00ef
ff41
0036
02bd
00b0
008e
0007
fffb
0006
fed1
009d
fc81
feb0
fe6a
ffa1
fe75
010d
ffe1
00af
01b7
0062
ffdc
00ec
0040
00ed
001b
00f7
03ad
02dc
0341
0392
03ac
fffb
0007
fffe
0008
0003
0005
0033
ffeb
0034
fef8
ffac
ffae
0270
01c3
01df
01ca
01aa
fe60
018b
04cc
0292
0082
0179
019f
029e
02e6
030e
fffd
fffc
fffd
0009
0006
0006
fffb
0007
002a
0034
0059
0041
002b
fe11
00d4
0134
0161
0261
0333
0174
00b4
ff6c
00ce
00ba
fe34
fd13
fdf2
fffa
0007
fffd
0009
fffd
0005
0003
0000
0002
fffd
fffe
0007
fffe
fff9
0001
0009
fffd
02f2
0273
feb8
ff52
0004
0006
fff9
0001
fffe
0001
fff7
0001
0003
0006
0006
fff9
0009
fffc
0000
0005
0129
0189
0240
0312
02fb
03dd
0339
0280
02f0
ffa6
fe3e
02f1
0249
03c1
06d7
0621
059b
0423
0381
02b7
fffe
ffff
0004
fffa
0001
fffd
0287
010c
032d
0343
0454
05a1
03dc
018a
0272
03f4
04e1
01d5
0256
03bf
0302
027d
0268
0321
0322
0440
03a4
0313
0102
fe4b
0001
0000
fff9
fffb
fd6d
ff9f
013c
ff85
0394
0309
024a
03ed
0296
01d8
013b
02aa
0135
0204
01e1
00ff
0247
01c9
00d6
01c1
0131
05d0
03cb
fd72
0089
0008
0000
0002
fd38
fe58
ff24
02c7
00a2
0208
012b
015a
024d
01df
01d6
ff82
00de
ffd3
00ab
0025
001e
00ae
0207
00f2
ffd1
009b
ff0c
ffd9
ffc6
03e5
fff8
fff9
fe64
ffdf
fd9b
fedf
ff19
0077
002a
feab
002b
ff87
00aa
0152
012d
ffe4
0017
00af
fef0
0074
00de
002b
ff07
ffa3
002a
0095
0512
039b
0004
feec
0067
ff1d
fbe2
fed2
ffb2
0086
0098
ff31
ffdb
00cf
0118
0027
ffdb
0076
ff0d
ff40
fe52
004f
ff23
ff5c
010b
ffe2
ff74
02be
0185
02c0
ffd6
fe87
ff05
fdb3
fe04
fe16
ff36
ff3c
ffbf
0033
00c3
fff4
ffb3
ff23
0055
0119
ffc9
ff6f
ffdd
ff68
feef
ff26
ff8f
feed
005c
0100
009a
03a3
0032
fee8
fef8
00c9
fd8e
ffa4
00eb
ffe7
ff54
00a8
006f
00a2
005f
00d8
ffef
ffc9
fed3
002e
fe69
feab
0011
fe9a
fec4
ff10
006b
ff52
ff33
01e7
ff9c
fee5
0201
003a
fe16
ff06
00a3
ff79
0088
ffc4
ffdd
011f
0021
ff10
008f
fe88
fe45
fe96
fe64
fff0
ffb8
0045
febe
ffd1
013c
ff1e
fec9
fd0a
ffbe
ffa1
023e
015c
006f
ff63
ffd0
ffd5
0045
ff62
0004
ff80
0010
0035
00ef
ff99
fe28
ff9c
ff96
fe4b
ff5c
00a0
fefa
00e7
013f
fca2
fdf9
fdf5
ffbc
0004
01fc
fd53
ff83
ff76
ffbc
009b
fedb
ffe9
ff29
ff04
0069
019f
0210
ffab
ff74
fee3
fff4
ffbd
ff96
ff61
ffcc
001a
02a8
0212
01b4
023c
fff8
fdff
fc81
0356
ff21
fe4c
ff8a
0059
ffe8
ff74
ff35
ff7f
0046
020e
02b5
0097
001a
007a
0066
fffc
fef5
ff75
00d2
02a4
03e9
0127
fe8e
0117
00bb
fdf2
fc35
01e0
fe0a
ff76
fe78
ffaa
0010
0042
002f
ff41
ffa9
01e2
00c8
004f
0099
ff3c
fe84
01de
0130
014e
0176
03da
01e9
fd39
0020
ffe4
01a0
ff79
ff4e
004b
fbfd
00e1
008c
ff23
ff69
fffe
014d
017c
fff5
0043
00ed
00ce
018b
0067
ff8e
ffcb
0078
0160
0129
ff52
ffdc
ff34
fe17
fd7b
0140
ff63
feda
0338
ff24
ffe0
ffa9
ffd8
ffb0
0008
fff3
003a
ffe9
fff3
00d3
ffb3
ffe7
013f
007b
0119
00a6
00e2
0055
ffc5
0092
02ca
fdeb
fd6b
0006
fe7e
fde5
02a5
00f5
0058
0198
0140
002f
013b
00d3
0172
0024
ffb4
00ec
ffbf
fe90
ffde
ff91
ff66
ff79
ff22
ff46
ffff
00bb
0241
fd26
fc97
0001
fdc7
fde1
fff9
ffdb
ff2b
0029
ffac
016e
021e
0212
00db
feff
0026
0020
ff74
ff87
fefe
ff99
001d
00bf
ff74
ffb1
ffad
fff3
fe5c
ffe7
fdaf
fd8f
fd71
fdc5
ff6c
009d
0098
ffd3
0009
0088
01ce
0078
ff5c
ffac
ffff
ff84
fee9
ff78
ffcd
fec6
feb4
00b8
ffc8
ff48
016c
007b
011a
fd68
ff1a
ff4d
fc29
ffb4
fecb
00a0
00bb
002a
012d
00d0
013f
01be
007e
ffbb
ffbe
ff35
ffe3
ffd1
002f
0039
ffe4
005f
005b
009d
01ba
fd79
ff36
fbb3
fed0
fffc
fc9d
fee0
fec0
0151
0041
ffd9
0120
ffde
00e3
019f
ffd1
0085
001c
ffe9
0049
ff1c
fea7
ffe4
ff94
ffdd
00b9
0094
00f3
fc7a
ff07
fdef
0028
0064
fe31
fdf2
fef1
01f1
fe80
00c9
014d
0103
00d2
002f
00f8
0021
015d
0111
0112
ffe6
00cb
005a
ff57
ff7e
0016
ffe1
ff94
fa6d
fd60
0125
fef3
0068
0052
ff1f
0038
006d
0002
ffc7
00b4
febd
00c2
00fd
fff4
0009
00b7
ff8c
0119
007c
ff76
fef0
0069
ff7e
fee7
fe93
fcd7
fa43
fc03
ffaf
fe84
fff9
fffe
fec5
fed5
0105
00cb
ffd6
ff66
0067
0127
febf
ff33
fff1
ffe6
ffa8
0075
006d
006a
fff1
0100
0065
feed
0125
0046
f922
fc1d
fdae
ffff
fff8
fffb
009a
ff6e
fcdd
fede
ff75
00d3
00d1
016c
00df
006e
0199
009d
0083
ff65
0173
fe1f
ff0b
000d
fd9b
fd68
0182
fe5c
fe56
02f0
0013
0001
fffb
fffd
0043
ff98
fd27
fe6b
ff7a
ff5d
fe54
00b7
03e8
00ec
01c1
0004
0032
feca
fdee
fbdf
fbd4
ff88
ff76
ff7d
0088
002e
fbd7
0076
005e
0004
fffe
ffff
0001
ff0b
ff4c
fdff
fd17
fa8f
0015
01b1
00da
ff73
ff0f
023b
0121
fdf8
ff7d
0102
0185
ffb5
faaf
fba5
fc63
fcd2
ff70
0002
0004
0001
fffe
0001
fffd
0008
ffe2
ffe2
fe5d
fe6e
fe93
fe54
fe41
feb1
fdab
fd0a
fefd
ff4b
ffe8
ffcf
ffc1
ff81
ffd1
ff91
ffc9
0000
fff8
0000
0002
fff9
fffe
0005
fffc
fffc
fffc
0004
fffe
0004
0009
ffff
0007
fff9
0003
0002
fffc
0000
0005
fff8
fff9
0001
0009
0004
fff8
fffc
0007
0002
0006
0005
ffff
fffd
fffa
0009
0001
0000
fff8
fffd
0008
002c
fd07
fc20
fbf2
fc9c
fcd3
fdd3
fe1d
febd
fd17
fe27
fed6
fe83
ff26
ffff
0003
0003
fff8
fffd
0008
ffff
fffb
0057
006c
ff9c
fd84
fcf9
ff73
ff92
00ca
00a5
0125
01bc
fcfa
fc98
fd69
fdd0
fe56
ff67
fefd
fe5d
ff4c
0127
fd17
ffe1
0004
0007
0001
0007
01ee
0354
030f
0145
ff7b
012a
033b
ff17
020e
0125
0173
fea0
fff4
0263
014b
ff1c
fee4
012a
01ce
fd9f
fe13
ffef
0257
0411
04a3
0007
fffa
0005
023e
02b7
01b7
0153
ffee
018c
020a
012d
0045
001d
0026
0108
ff12
ff75
ff88
0029
ffbe
ffd4
00b2
00dc
fe87
ff06
02f8
0252
ff98
fff3
0004
fff9
ff5f
0402
fe95
ff3f
fff9
01e9
ffdb
005c
fff0
0054
ffe4
0106
00ac
010f
00ce
ffc3
0147
008c
ffee
0018
ffca
fe9e
ffd3
0013
0116
00af
ffff
010f
ff37
01c7
00ba
0061
015d
00a4
00fc
00d1
ffc1
ffe5
00c7
ffd7
ff65
ffd7
ffcb
008b
0038
005c
0035
ff7d
016a
ff67
fffb
ff4b
014a
fefc
ffe5
038a
ff49
03cf
02de
0148
000f
00db
ff32
003b
fff6
000e
0087
fed9
0098
ffaf
fffd
fffd
fe96
ff2f
0024
ff80
0086
ff20
ff39
006a
031c
fe1a
ff78
030f
fc66
027d
00c6
00a8
ff35
000a
ff2d
feb3
ffbf
ff28
ff45
ff65
fefe
ff7f
fe35
feea
0026
fed2
0002
0026
011e
ff4a
0060
00c1
002c
0160
ff0e
02a1
fd7c
ffd7
009b
00c3
0015
ff5f
fdf4
fd51
fed8
ffbf
ffbb
fff3
0048
00f9
010a
00ec
ff9e
fe76
fe34
ff1c
019a
ff1e
0143
00ce
fee9
fe78
ff15
0106
ffc6
ff5c
fed6
ff82
fdea
fe9c
feb0
00f6
0076
001c
0064
023a
012c
0104
00d6
ffdd
ff74
01a3
00b7
ff97
008b
ffbf
04c1
054d
fe41
fca8
ff3b
ff4c
0030
0120
feb8
fd16
fe03
ff84
01e7
ff90
0076
0114
0133
013b
01cf
0087
ff3a
01a6
01dd
0182
0106
ff35
fff3
0201
04d8
043b
fd6c
fdaa
006f
feb9
0313
0287
fe45
fadf
fcd1
ff3e
ff75
0018
ffe7
ff2d
0065
003a
00e9
0141
00b1
ff5d
ffa2
ff41
ff76
fd07
fce6
facc
fd41
02ae
0563
fe49
002f
fe63
0321
00fa
fc39
fbb8
fc42
fc13
ff16
0072
fff4
ff4e
003a
012c
00dd
0012
0099
ff4c
fec9
ffe0
ff8a
fea4
fdb3
fd42
f753
fe0b
00bb
fe67
ffce
01cf
0095
00fd
ff43
fe5b
fe75
fc2e
fa39
fcb9
ff15
0032
005c
ff05
ffdf
000f
0056
0004
0043
00ad
002e
01e6
00c5
00e5
fe1d
fcf4
fe25
fe44
005d
0149
02f2
fe9c
0225
017d
006e
fd7b
fa6c
fae3
fa37
fc8f
fdc3
fe18
fe4b
ff70
fff1
00d7
0078
0095
0176
0191
fe87
01c2
00d1
fda7
ff9b
0002
0090
00d8
01c9
ff7a
023b
0201
0188
002c
0035
fd1f
fc8b
fc6c
fd74
fecc
fed9
fede
fed8
ff72
00c2
00c5
016d
ff98
010a
007c
ff98
fb05
ff25
0178
0004
0253
fe56
002c
01b6
0215
0275
0211
02bc
0021
ffe5
ff2c
fe6a
ff12
feaf
fe05
ff9d
00c7
001e
0198
0064
001d
003a
0100
ff7a
fdf7
fe4e
0148
ffdf
02a5
fe51
0337
ff33
02b3
0147
00c0
01fc
018a
012c
00ee
ffe7
00ba
ff98
ffd1
ffcc
ffed
fef0
ffe9
ff65
ffb5
fee0
fede
01ad
001c
fe9b
0019
0061
fedc
fe22
01ac
ff13
00ca
0171
008a
00c3
0154
012f
011c
01b1
00bb
ffdd
ffb2
ff18
ffd6
ffa9
ffe8
ff80
fed3
fdfb
00c9
0121
fdba
feb2
0006
fffc
fdf4
fdd6
0057
ff45
0003
00a4
00a0
0210
0100
0047
ff89
ff30
005a
0131
0026
0014
ff0b
ffcd
feb7
00f5
fef1
fff4
01bb
00a3
fbd5
ff64
ff22
ff30
ff76
fec6
ff6e
fdf3
fda4
fe8e
ffaa
0090
ffeb
ffd3
0002
004b
0035
fff8
fff2
febe
ffaa
0075
001e
006b
fe80
00df
ff48
fa7d
fdcb
ffef
0063
ff31
ffc4
ffff
ff93
fd88
ff11
00a1
ffcb
ff16
ffff
003a
0066
ffc7
0065
001e
0132
00cd
00ef
fff6
ff92
fdcd
ffa0
fe2f
fd0e
fe77
feff
00e1
007d
fff8
0004
0111
00f6
fffe
fe72
fe3b
0080
fff4
002e
00d3
ffae
ffd6
ff8c
ff9c
ff41
fe3b
fed2
00f1
feb3
fdb2
fdba
ff4e
fd88
03da
02dc
0098
fffb
fffd
0001
0070
019e
02d4
02e9
008e
003e
ffc0
ff79
fefd
0031
ffbc
ffb1
0075
ff26
fe94
ff2b
fdbf
fd8e
fcf8
fe3b
fe0f
fdcc
0179
fd71
fd98
0007
fffc
fffe
0002
ffc6
02aa
0102
003e
0095
ffe3
fd74
ff0c
00ad
ffbf
001c
00e4
fe93
fd2d
ff2f
0121
00de
feeb
fe8a
ff8a
fe35
ff09
0025
0002
0006
0001
fff8
fffa
ff71
fd57
0053
018c
00b8
fde9
fe27
ff05
011e
0326
03d7
005c
ff16
fef9
0048
015f
0252
0156
ff4e
00af
0241
ffff
010f
fff9
0002
0003
fffc
0008
0002
01c7
01bf
00c3
009b
0124
004f
0117
011d
015b
fed1
fec2
fff2
ff28
000a
0074
0232
015c
0006
ff9a
0037
ffff
0001
0001
0008
fffa
0007
0006
ffff
fffc
0004
0004
0001
fffd
fff8
fffa
0007
019b
0064
fe09
fecb
fffd
0009
fff8
ffff
0008
fffa
fffc
fffc
0007
fffe
0000
fff8
ffff
fffb
0005
0002
003f
008a
01a7
023c
01f7
02ae
02aa
ffd8
fe69
fe14
00ed
0074
fe09
fda7
01a9
022a
fe94
fd76
fe43
fef5
0009
fffe
0006
ffff
0001
0006
0000
fdb3
fe01
0242
0216
02ff
038d
0321
031c
0391
0238
01c1
04fd
0465
0192
006f
fe1e
0222
02ba
03a5
ffef
00b8
032e
004b
0004
0007
fffb
0006
fff9
fdc1
fee8
020b
0266
0063
fe35
024d
0099
0142
014f
01c1
009b
fd38
fd51
ff4e
fccf
fe45
0216
01c1
ff9c
0023
ff8b
fff9
fff7
0003
fff9
ffee
ff42
0165
ffb3
ff05
0053
ff5d
fd84
fd4a
fd99
ff79
00fd
0168
fec1
fd39
ffdd
fe5e
0089
ffb2
00e5
018c
ffd0
00a9
ff5e
fdf3
fcd5
0008
fffd
fff7
ffae
0048
0021
01d2
0007
ffb5
026b
0298
013d
00c4
003c
ff82
feb9
fec7
ff1f
ff6e
fefc
fdec
fd87
ff1d
fd4c
ff3d
fedc
fcfd
fc6a
ffe2
fffd
ff89
ffc7
0098
00f3
005d
00d8
005d
0188
ffb4
feb7
ffd6
0068
ff75
ff13
fe3a
ff9b
0088
fffa
ff85
ffab
0176
ffdf
fff3
feb9
fcbd
fd1d
fbd1
0040
ff35
00c9
01e7
01cd
00d3
0167
01ff
ffa6
00d0
fff1
ffc5
0050
0000
ff1c
fef7
ff24
00f3
009f
00b4
006f
ffea
ffc9
0012
0062
ff10
fd64
fb2a
fcbd
02cb
00d1
002b
023a
018f
fffa
00f9
00b1
00d1
0108
ffb5
ff9a
ff3b
0064
ffed
ff0f
002a
007b
ff8d
0051
008c
fe46
010d
ffba
fed4
fa0c
fc8c
02ba
0491
00bb
ffbb
0182
022f
0080
ffc0
ff31
0074
ffc9
ffeb
0105
ffd0
fec8
ff9c
ffa4
0127
ffa7
0043
00a5
0161
0163
fee5
fdb7
0013
fb61
fd27
0289
0406
0011
ffc5
002a
00e5
ff61
ff36
ff95
00d6
0060
00f6
00af
ff7c
fe10
ff00
008f
0113
007f
00cb
0045
003c
00b0
fdbf
fdf6
0147
fc4d
ffab
030b
fdb4
027d
04d5
0027
0045
fffa
ffe7
0037
00f7
012d
00f9
0014
fdda
fcf3
ff52
006b
005f
00e7
00a9
0066
fe86
0000
fefc
fbc0
fff9
ff6e
02a5
01f7
0568
05ac
0339
ff0c
00a4
0004
0079
ffba
ffa3
00bf
00d8
001d
fbda
fda0
00dd
00aa
00f7
019e
00cf
0083
0037
0219
feff
fced
ff03
023a
0235
0001
02e1
0755
01f3
005a
ffbc
003b
0000
0044
ff94
0052
0139
feb1
fac8
ff02
004f
00ae
007b
0063
ff56
0066
00de
00c7
ff08
fe25
f99d
ffa0
010c
fe34
0289
05e3
0339
fef3
017a
ff8f
ff94
0049
005e
0141
0055
fe09
fde3
00cd
0084
00f2
011f
0072
0135
0146
0055
01a9
02a2
008f
fe38
ffc0
ff5d
02ed
fee4
00da
01fd
ff30
ff2c
005f
002b
ff20
005d
009f
ff6a
fc12
fed3
0058
0048
00b1
021c
0141
0192
027e
0072
02aa
01f7
ffcb
fb4d
fc0a
020c
0439
fed0
feea
ff4d
0004
ff3d
00f0
0293
0069
ff66
ff1b
fd66
ff68
ffb5
006a
01f5
00ad
0216
015f
00e8
01f7
0131
00ac
ff2b
001f
fd49
fa26
fc18
0003
fe4d
019f
000d
0067
ffa4
ffe8
007a
003c
ff38
ff5f
007d
fe60
fffc
017b
00cd
fffd
004c
009e
0024
00bc
0025
00bb
ffe1
0280
011a
fc3c
fb61
03dd
ffbd
02ba
ffc5
00b4
0145
feb1
0134
ffc9
fe13
fd49
ff82
ff8d
013d
00f3
ffe1
0143
0033
0079
ffb2
0000
00f8
002e
fdea
fe2f
fcf7
ff6b
01c0
0008
0425
0302
000e
0239
00fd
fd30
fe47
febc
fedb
fe9c
0058
fe39
ffa8
018b
005a
ffce
ffcc
ff3e
ff2a
ff58
ff8a
fdf6
0036
fec5
ff4c
ff3a
fff8
0005
010a
0202
ff8f
ff30
fd07
fb9e
fe2a
fea1
fd7f
ff7e
ff9c
002b
ff60
0035
0025
ff28
ff1b
fe4e
fdbc
fe92
fee9
fea8
ff2e
ff4d
fda9
01ae
ffb8
0008
ffdf
ff71
fd73
fd47
fd4f
fe3d
fe36
ff90
ff81
0071
0055
ff61
fff2
000d
ffb0
0049
0002
fecb
ff6c
fe56
fe43
fe6a
fed4
0106
00ee
fb99
ffe7
0004
ffc7
fe6b
fed9
fc8c
fdf8
ff18
006d
00dd
0050
ffe7
ff80
ff4c
0011
004a
fff9
0030
ffe0
ff43
ffdd
ff8f
fd7b
ff91
fe5c
0201
020d
fd27
ffd5
0001
0008
fc66
fe43
fe22
ff44
021e
01ff
fee1
ff09
ffd7
ff02
ff2f
ffc9
0027
ff79
ff0c
ff72
ff99
006b
fef2
009a
ff1b
ff09
ff9b
0178
ff51
0007
0000
0000
0024
fd86
00a5
0179
023f
ffd8
feeb
ffe4
ff3c
00d7
ff71
ff83
ff61
fe80
fefc
ff1a
ff12
0111
0250
00ad
0026
00ec
01bb
0263
0038
fffe
0001
0005
fd77
011e
ffe7
fe7c
006d
0108
fff7
ff90
ff9c
0192
0082
ff47
00cf
0088
0107
ff88
01c3
fe9f
fe9e
ffc8
fe7e
fcff
fe33
00af
0041
fff9
fff7
0007
0003
ffb3
00b0
fd9c
00cb
0349
0202
037a
fff2
ffbf
ff32
016d
01c7
ff32
018e
0033
00b8
0136
ff73
0317
03dd
fe65
ffb2
0281
fff8
fffd
0006
0007
fff8
fffc
03ee
04df
03cc
02a1
035d
01ca
01c3
0036
ff33
03cd
021e
ff8d
0092
060b
036f
0205
02a0
04bc
0251
036d
ffff
0003
fffd
0000
fff9
0001
fff8
fffe
0008
0009
fff9
0001
fff9
0009
0009
fffe
0003
fffd
0001
0002
fff8
fffe
fff8
0004
fff9
0000
ffff
0009
fffd
0005
0005
0002
0002
0000
0001
0002
ffed
fff0
ffb7
ff95
ff8b
ff74
ffb1
ffbe
ffc4
ffce
ff6b
014a
0138
012a
ff25
fd23
fbfd
fd77
fe40
fed2
0002
0006
fff8
fffe
fffe
fffd
fffc
fe91
fe7a
ff8b
fd4b
fdc0
fd56
fdeb
fee6
ff44
fe6e
fe63
fd52
feea
ffc8
fe67
fc6b
fcab
fc36
fc75
fdf8
fe09
ff70
ff8f
0007
fff8
0003
fffd
0230
ff8d
fcdb
fc33
fd57
0061
ffe7
fbe1
fcce
fa25
f98a
f8fb
f827
fbdc
fb70
fe0c
fe22
fbba
feba
ff92
fdf0
ff07
004c
0175
0027
0005
0005
0006
0242
01d4
fe18
fbf1
fd4c
00a9
012e
fee4
005d
00dd
0006
ff43
ff8e
fedd
fe57
ffb7
ff6b
fe49
fe7d
0014
00cd
0000
ff85
0366
0518
00d7
0000
fffb
0148
ffa5
fe2e
0115
01d5
01cf
0042
004b
fef8
00fc
0123
015b
ffd6
ffc6
fea4
fec6
ffbc
feb6
fff0
fe86
fe9f
fe6c
0117
022a
0266
ff11
fff8
fd7a
00ad
016a
ffcc
0176
00be
010e
0130
00d0
00b5
0212
0119
0172
019a
017d
0168
017a
0134
ffe6
00bd
0106
fee6
006a
ff7c
0330
00e2
fdcd
003a
ff64
00ab
026d
ff73
fe72
0085
ff3e
0009
004f
0034
ffd4
0162
01eb
017e
0208
01d4
00f7
0058
0012
0056
ff56
fdbf
ff73
fe87
fed9
fc6b
fca6
fbca
fd9b
ffc0
0035
011a
ff7b
ffd9
ffb9
0136
00c9
ff68
00cb
0020
01bb
01b8
00da
00f6
0038
00ac
006f
fffe
00bd
0072
fe39
fef0
ffcd
0296
007a
0199
03a1
fe97
00de
0119
008d
0177
0079
ffd3
010c
0168
006c
00e7
0198
0156
00bf
ff58
0116
ff39
000f
003a
ffce
ffcf
ff70
00a1
00ce
01e3
0234
0164
027d
fe6f
01b6
00ff
002d
0187
003d
ff54
0124
003b
001a
0021
009e
00e1
fe98
fff4
ff10
0035
0011
0036
ffa4
0033
0048
007c
0008
ffdb
0143
01be
fb9f
0193
01d5
007f
0060
00cf
011c
0133
0033
00e1
007c
ff43
0083
0016
ffa8
0038
013c
00af
003a
00a3
0064
0116
ff85
01ef
fe78
0485
0151
018e
032a
03d5
008c
02da
0159
0130
0046
ff03
ff47
fea0
fe7f
fd37
0080
00f0
0062
0095
0025
0072
0149
ffec
0095
0046
0182
ffc6
0085
0165
0180
feb3
01c2
048e
00d6
0307
ff65
ff84
ff8d
ff5a
ff6e
feeb
ff58
ff1f
012d
013b
00f0
010c
0000
004d
000e
00fd
00ec
00f0
fe2e
fec3
0171
fd56
ff6c
fe2f
0211
028b
00d2
fee6
fd8f
ff8c
ff11
fecd
ffba
ffa6
ffc8
ffd8
00f1
0069
006a
004c
005b
004d
00b7
00de
fff1
ff75
fed8
fdf2
019a
fd16
fe89
004e
00c3
ffef
ff98
ff1a
fee4
0065
ffd4
0020
fee0
003d
00f0
ffb2
fff4
0011
009b
ffc3
0124
007c
002b
00d4
ff95
00c8
0017
ff02
ffbf
fb7b
ff3e
01ee
00da
ff9a
ff4b
01a2
fef8
0041
ffcf
0030
ff5c
0033
005d
00a2
fff5
ffbb
ff8e
0018
007a
0028
fee3
ff2e
ff06
0045
fe8c
fdeb
faac
fa96
fced
0007
0103
fd43
00e4
fed5
0004
fe0b
008d
00b0
00a7
00c5
0031
00ad
00bd
0010
003d
ffef
ffd7
ff69
ff62
fecd
fecc
00ab
fe67
0014
ff57
fdc0
fb87
0398
004a
ff7f
ff81
fe14
feef
00ee
ffc6
001d
fee2
003d
0084
0039
ffc6
ffaf
ff88
ff1c
ffc1
ff5e
ff5a
ff22
ff65
0068
fe25
fc6a
ff61
051d
fbaa
ff91
fdcd
0127
fee5
fdf0
fe5a
ffb2
0069
fff0
fe51
ffb3
fee9
00ba
ff80
ff39
feb9
ff5b
ff9f
fef8
0155
003c
0061
ffa2
ff2d
fba7
fcaa
fd74
fcef
0003
fbfd
feaf
fdc6
fe00
ff2c
fe28
ff26
ff34
feb8
ff83
fe5c
fe32
ffb3
ff98
ffc3
fef9
ff93
ff4f
0130
ff6e
ff5b
ffa8
00eb
fd49
ffcc
fb0b
ff0b
fd9e
fdeb
01b8
0089
0090
0120
ff27
ff74
ff61
fe93
ff97
fe93
fed0
fe9e
fff4
fffb
009e
ff0f
ff95
ff10
0036
004d
ffb2
fef5
fe80
fffc
f93b
ff49
fd93
fd05
fd8b
027e
feae
ffa1
ffaf
ff6f
ffeb
007d
0052
fffb
0023
0020
008f
fff8
fff3
ffda
ff6c
fe4e
ffc6
fd34
0034
fe9a
003e
00ab
f7f8
ff05
fffe
fffa
fb5f
008c
009a
0011
0010
ffc9
0177
ff5e
fff5
ffc3
ffb8
009f
0029
0001
fff8
002a
0110
000f
0062
fff0
01e3
ffd1
035e
010f
fb16
fffd
0002
fff8
0079
ffb3
0013
ff3b
00ac
0055
01ad
fefd
00b1
007f
ff64
fff6
ff31
ffd6
0037
ffa1
ff10
008e
0105
febe
ff34
024e
008e
fd59
fba9
fffa
fffd
ffff
02b6
00b1
00fe
0400
0012
0055
01b0
026b
0185
028f
0153
00b9
00ba
0053
00d8
00ec
0096
0182
0105
00fe
ff85
ff52
fe29
00e6
fbfe
ffff
0008
0007
fffb
039e
0035
027a
03f8
0496
0378
0575
0407
03a1
030a
03aa
067f
0284
01e9
03f4
03b5
01c2
0252
02af
028e
032a
039c
01a3
fffd
fffe
fffe
0009
0001
0003
ffa3
fe4a
0373
0345
02f2
0148
029f
0137
02b8
0081
072d
0628
04a7
0158
028e
01d4
fec9
007b
020f
00ea
fff9
fffe
fffe
fff7
fff8
0009
fffb
0000
0009
0003
fff8
0000
fffe
fffb
fffb
0005
0251
028e
002b
0029
0000
0000
0005
0006
0001
0009
fff8
0004
0004
0004
fff9
fffe
fffb
fffc
ffff
0002
00e3
013d
022f
02d1
023d
02d9
028b
02c1
04a0
06a2
01fb
0060
010b
01fe
0423
020b
0053
0114
019c
01cd
ffff
fff9
fffa
0003
0004
0005
001e
fffd
01ab
012f
02c1
0311
04f2
032c
0052
0183
0199
fd02
0338
fe49
fc77
0228
0553
020c
029c
037f
0326
0229
004e
0046
0000
fffc
fff9
0004
fd79
fdcd
0096
ff7c
0133
0186
0133
033a
00ee
fe84
fd2d
ff43
fe34
ffc8
ff5c
fe7a
fde5
00e9
ffc0
ff9a
ff3e
fdaf
fe29
fdd9
0035
fffc
fff8
000c
fd4d
fbb0
fedf
0241
014b
00b1
002e
00af
009b
fef8
fff8
ffce
fef2
fdb7
fec0
00f9
fec2
ff3d
0131
004c
fdf5
ff0b
00c9
0230
009c
01a6
fff8
ffff
fe03
fea2
02e2
ff9f
fecc
0063
01d4
febf
fef7
ffd9
018a
ff8b
fed8
ff84
0074
0084
ff7c
ff24
fddc
00bd
ffcf
0032
0155
006b
014b
0111
fffe
0000
ffd4
01f7
013a
0014
016e
0077
0006
0056
ffef
ffd9
fffa
ff79
ff52
0009
ffe7
ff7e
feb5
ff42
009d
00f6
fea5
0041
fed0
ff91
01e2
01ec
fff7
fc2e
00aa
ffd1
01f7
0029
ff09
004a
ff72
ff57
fe77
ff66
ff20
0018
ffb4
0058
0057
ffe3
0024
00d5
ffeb
0025
ffdd
00a7
fee9
fc54
fe63
01bb
ffe4
fc4f
ffc4
0000
017d
00c9
ff2a
0097
00d1
ffab
0040
ffee
0001
00da
009b
ff00
fea9
ffbd
ff08
0084
00f2
0058
01c0
0045
fe61
ffe9
024e
02ea
ff9e
fcf8
0069
00d3
00ae
01fe
fe8e
ff97
0063
008b
ffc1
ffae
001c
0097
00e7
fee3
ffee
ff9a
ff36
fef4
ffb4
002d
ff73
002f
fe8d
ff6c
fff4
003f
ff9c
fcea
ff4c
0080
0033
0200
010e
ffe1
005f
0005
00c1
0027
ff1a
0064
0017
002c
ffb3
00eb
0074
fff3
0045
0070
00b4
01b2
02b9
fd4a
fdd3
00af
ff55
feb2
0085
011c
017c
0145
0176
005c
006a
00ee
ffd3
0042
fe64
ff70
fe82
0004
0015
ff34
ffae
0081
ff2b
004f
002b
012a
fdb0
fc5f
fe2d
ffc3
fec8
fd63
fe77
0281
01e8
01d7
0070
011e
ffe2
0061
fed6
fef8
ff5f
fea1
003a
ff35
0011
ff2f
ff89
0040
fee2
ffb6
0031
fee4
ffdc
fd9b
fda4
01c6
0075
fc2d
fd76
0204
00d5
0057
ffa4
ff79
ff54
ffbc
feee
ff05
fe5f
0059
0021
0074
001d
ff8e
014b
0034
ffda
ffea
00f6
ffb6
ff75
fd24
015b
039c
fffb
fdd6
ffea
0010
ff16
fe40
ff85
ff1a
ffd8
fe67
fe49
ff6b
ff8f
00df
0030
ff68
ffd4
ff81
002b
ff77
fee8
0154
ff0d
01df
0067
009e
05b5
039d
fe42
fffa
fdc5
fe75
fd52
ff47
00f0
004e
fe68
fd27
fcf4
0057
0091
019e
00eb
0034
0048
fff0
001b
001a
ff8d
fec9
000f
fffe
009f
01e9
00de
0347
fe14
0136
00dd
0142
0063
fea3
001b
fe5f
fd7a
fb89
fe64
011e
00fb
0136
014f
ff90
0117
fff9
ffcf
00a0
fe69
fea1
0083
0236
0351
06aa
03e1
04f2
0004
0103
ffc1
01c3
ff78
fef6
fe9c
fbfb
fae5
fc81
0064
020e
0282
01b6
007c
fec4
ffee
000c
ff38
0016
0177
0068
004c
0104
0358
061f
022d
0574
ff7a
ff7b
fd95
0042
fd7a
fb8e
fcdd
fd57
fc58
fe66
01b8
01d8
0306
0173
ff97
00c1
ff89
0097
004c
00dd
00ac
ff1b
018f
0097
0259
01ab
fd9c
0187
feec
ff3a
fdaf
feac
fcd2
fa40
f959
fd6f
fe23
fec0
029f
02b7
01d6
01da
0117
011d
009f
01bd
0095
0103
00a1
ff7e
0024
ff09
fe9e
fdf9
0400
feec
0002
ffa8
fe17
ff0f
fd7a
fbbe
fc85
fdf2
00b7
ff45
01be
01d8
0192
0077
0056
006a
ffd8
003f
0036
fffa
00f7
006f
ffb1
fdf1
fdfd
feda
03d1
ff4e
ffc9
fffa
000d
002f
ffef
ff18
fee8
fde1
ff0b
0000
ff97
ffd7
0071
ffbc
005d
0051
ffb9
00d9
ffd9
0122
ff3b
0014
ff1c
0089
febc
ff4e
043f
0008
ffd0
fffb
018b
fffe
01a2
feae
fd71
ff53
0028
ff7f
feb3
feed
ffad
0087
0084
00d0
0072
0003
00b4
00f8
ffd0
0069
feab
ffb7
fe15
0002
ffa7
0006
fffd
fff9
ffe7
fe9f
0194
ffe9
fe63
febb
ff99
ffd5
0027
00a9
ffdf
0107
00b3
009a
00eb
ff58
009e
007b
020b
00f1
00ab
01c4
ff94
0154
fe58
0000
fffe
0000
fffe
fc80
ffe3
00ca
fe22
fa22
fcc5
fe54
fe8b
0024
0056
005e
0085
0065
00bf
ff0f
018b
01cc
ff15
ff12
01b0
ffa6
0338
00f3
ff56
0008
0006
0002
ffcf
0086
fcf1
fe47
020b
00ab
fee1
ff73
0068
ff92
004c
fecd
fe79
ff95
ffa5
003b
fef7
fe45
fd56
fa07
fdc5
fd24
fb07
fd31
0035
0002
fff7
fff9
0004
0002
fcb3
fe7b
ff45
02cf
029b
fed1
fefb
0093
ffcc
ff1f
0044
ffc7
fe50
ffa0
ffd6
ffd0
00ac
fd47
febf
0048
005b
ffd0
0008
fffe
fff9
0001
fff8
fff9
009f
0166
01e8
0297
0275
03b4
0317
018a
0098
0611
047d
024f
025b
0121
ff42
01b4
0144
fed4
00a7
ffff
fffc
fff8
0003
0006
0007
0008
0009
0008
fffb
fff8
0001
fff8
fff9
0002
fffc
fff9
0012
0149
02c1
01c6
0000
fffc
fffa
fffe
0006
fffb
0004
ffff
fff7
fff8
ffff
fffb
fffd
0006
0008
fffd
ffe9
ffe7
ff1b
fedd
fdd8
fe91
0029
007b
000a
fe67
fec1
ff8f
004f
feed
fee3
fe44
fd99
fd7d
fde1
fffb
fffb
fffb
0009
0006
0004
ffff
ffff
0002
ffc2
fef7
ff29
fefd
fff8
0175
00d2
ffab
ffe7
fe6a
ff44
0100
ffc4
ff10
fead
fdc2
00ab
ff95
fe17
02de
02d9
0233
0002
0008
fff8
0008
01f6
015c
0254
035f
03c4
01a8
02e1
0232
00b1
00b1
00f4
0084
0092
0115
0189
0146
ff63
ffd1
ff8c
ff72
fdfa
fe30
00cb
0231
0084
fff9
0004
0033
0280
0279
00eb
0290
031c
007b
0116
0023
007a
0143
010c
008a
ff75
ff3d
0055
0078
0055
0074
016a
006d
fee1
fdb1
fd72
0003
fc96
fc4c
0006
0001
0319
00cb
0071
ffb1
ff58
ffec
000d
009b
0010
ffe1
003a
008c
ffaa
ffa1
0151
ffc9
ff8d
fe05
ffbf
002e
ff44
00d3
ff60
fdc7
fcd7
fc44
0005
027e
023b
feed
00f7
ff6f
025c
0014
fede
00ff
0088
015c
00ed
0078
0069
002d
002f
feda
0004
ffec
ff79
fea5
000d
0010
ff17
fc80
0046
0107
ffff
0215
046b
021e
0053
febe
0132
00f8
009c
00f0
0008
00a1
0023
0112
0141
ffb0
0052
0109
fff6
0029
ffe1
ff8c
0096
ffec
0141
ff9a
0115
0110
001c
0416
0227
00bf
ff84
004b
fea5
010a
00be
00af
00f3
014f
0088
ff7f
016b
00a0
0013
0079
0038
0006
00a5
ff88
ff9f
ff43
fd78
fcc1
fdc5
00b4
000d
02b7
01d0
006b
0182
00c6
0148
ff9a
00c5
0044
ffed
0085
0220
ff43
fed6
00af
005d
ffde
00f7
ffae
001a
ffe3
0174
0145
fce8
fc08
fc7d
01c0
000e
01b2
fe9b
0010
00e5
01b8
01a1
0189
027e
024d
01f7
ffbb
ff98
fdf3
fd9f
fe5a
ffcd
005e
0036
ff85
ff84
0005
fdf5
fdd2
fc31
01d2
ff73
01a7
0149
01a7
fdde
ff80
0178
0031
0074
007e
00bc
fe28
fc32
fb88
fa89
fc0a
fed0
0004
feee
ff20
ff38
fff6
0077
fedb
ff96
ffad
feca
0027
fa6b
fc2f
00b1
ffd6
fd45
fd1c
fd32
fc17
f9a5
f6d9
f39a
f3fb
fa20
fc6d
fece
ffd9
ffad
fff7
ff45
fec4
ff89
ff79
fff1
ff58
0065
0027
ffe0
0062
fd83
0089
0010
ff3b
004f
fbdf
f9e8
f794
f8ce
f998
fc34
ff8e
00c5
00d5
0144
00e2
0070
ff9a
ffb8
ff8f
ff73
ff28
feee
013e
fdef
0163
0273
02d1
039a
0408
0004
003b
0096
fc62
fd10
fbe7
ff92
0183
010d
00c7
00ba
fffe
00c0
0043
0055
ffae
ffec
ffd3
00ee
ffb6
0094
00f1
ff31
003b
ffdb
fea8
029c
0474
0006
010f
02a3
001d
ffab
001a
01a4
006f
018d
0092
0157
0123
ffe5
00ca
ffe4
00a8
002e
ff99
ffab
0032
ff01
0170
00d2
019a
0245
ff1b
0211
0358
fff8
0286
0464
026e
01da
fffb
01a7
00a7
ff80
009b
00d8
0001
0136
00f7
007a
0005
ffab
005c
0084
0173
0017
0157
00a5
024b
0120
006a
0242
020e
0008
02ee
04f2
ff3b
00f1
004a
00bb
ffb3
0020
00b5
0082
0019
01bf
003c
0135
0072
ffa5
0049
0091
ff39
000e
000d
002a
002a
006f
0054
fe6c
ff7a
0060
034e
042c
007e
fe94
013a
00f5
ffc1
0019
005f
004d
ff48
00a6
00b5
0069
ffa4
ffd0
0054
ff66
ffa2
0015
ffdd
ff48
ffdf
01b8
026c
ff20
02bd
0104
012d
fe8b
0102
0016
00af
001e
006b
ff9a
ff54
ffc7
ff56
ff6c
007d
0011
ff5e
ff64
007a
fef8
0014
feff
002d
ff18
00ef
007a
01d5
0244
0284
fffa
01a8
fe80
0491
01ca
ff47
ffba
00e9
00c6
0049
004e
ff6b
ffa7
fef9
001d
ff3b
ffc3
ff29
0076
ffc8
ff6e
000d
fe46
ff4e
ffa0
fe88
0206
0132
01fc
0478
003f
0310
ffe1
009c
ffb6
ffcb
0049
ffd6
0058
ff13
00f2
0035
0012
ffe7
0088
ff49
008d
ffb6
fee2
00db
fecc
0052
ff47
0210
017d
fffb
01ee
022f
0273
ffb5
001b
0280
ff01
ff90
003b
ffb1
0071
0025
ff45
ffc0
0091
ff5a
002a
00e0
fffe
00e3
009c
0065
ff64
ffd0
ffd6
00f7
ff65
fff7
fffc
fffe
0245
febe
0014
0103
010c
0146
ff48
0084
ff43
007d
0036
008b
0032
0070
ff89
ff85
00cd
ffa4
ff8a
ffbd
0262
ffd2
00c7
0087
0020
fff7
fff8
fff7
016c
018c
0495
0174
ff90
0122
fff5
023b
ff2c
00da
0064
004f
0011
ff5a
feb8
005d
fe16
ff1a
0192
fede
00bf
fd63
024e
0437
036f
fffd
0008
fffa
0074
04f7
0250
0049
00fc
0195
0295
00bd
009d
ffb6
01f5
ff16
ff78
0150
0128
ff50
fe63
ffde
0054
fd4b
fab2
fdba
0002
0332
035e
fff7
0000
fff9
fffc
fffd
fe93
fd0d
fd3b
0064
0038
ff8f
fea4
0045
0100
ffe1
01f9
014c
00aa
000d
0248
00ee
fd44
fdd8
fe4e
0012
fffc
0074
0003
fffe
0000
fff8
0008
ffff
0006
008a
022c
0310
0256
033a
0467
0343
0565
061d
043b
054e
046a
0503
0358
00ee
0065
fd96
fd65
0008
0008
0003
0005
fffa
fffc
fffd
fffa
fffc
fffc
0000
fff8
0007
0007
0001
ffff
fff9
0160
018c
018f
0161
0005
0009
0004
0000
fff7
0000
ffff
fffb
0002
fffd
0003
fffc
fffe
fffb
0000
0007
ffae
ff7a
fffb
ffb7
ffae
ffd7
005c
00da
001d
023c
03f1
0233
0282
014b
fffa
fec9
ff93
fff9
fffa
0001
fffc
fff9
0003
0001
fffe
fffb
fffe
0083
fe5c
ff3a
03ed
03df
ff8d
ff7e
01d3
0299
02bd
01dc
0204
0295
02d4
ffff
008e
fe73
00ca
ffcf
fe75
0041
010f
0068
ffff
0007
0008
fff8
02df
0286
ff75
fe86
013a
fedb
fc71
fe6b
02a3
006f
00ac
024e
0042
ff43
0036
009d
01e5
fff8
005f
fe88
00ed
021f
fd14
ff45
fe16
0008
fff7
ffff
0340
025a
ff87
ffd3
0171
ff61
0161
0148
0097
004f
0025
020f
029c
0077
01d5
00e8
0023
ff9f
005b
fdeb
ff91
fc7a
fe38
0049
00c2
fe03
fff9
0006
03d5
0328
fde5
fd9d
fe7d
0125
0028
ff67
0057
008f
004f
0182
00f6
00bf
011d
0076
00ae
009e
00f7
ffd7
001f
fdf3
fdfb
fffb
ff8a
fc92
0001
01d9
ff3a
ff90
fd7a
fea8
ffd4
ff67
001e
ff6f
0072
0024
00fc
004c
0046
0147
004a
0165
0165
00ba
0040
010a
ff15
ff97
fe67
ff6e
fece
fe1c
ffe7
01b7
ffcf
ffb4
036b
00d7
ff86
fffe
0000
009a
000d
ffd9
0076
007b
ff8d
0148
00dc
0013
011f
0076
ffdd
0161
027c
0053
fe7e
fd98
ff10
fdb7
02f3
0407
000a
0157
0260
ff32
0034
00b5
fffb
ff9c
001e
ff66
002a
ffdd
00e6
0086
01a4
0111
0134
01ac
00f8
ffe7
00b8
0046
fe1e
0050
00da
0306
0068
fe72
01ae
0150
004a
00a8
00c7
001e
0016
002c
0038
fed0
ff47
ff92
ff83
006a
016a
017a
0141
0155
0130
01a2
00f0
027f
fef9
03b0
0345
0100
007a
ff09
010b
feaf
ffdd
ff38
0027
ff77
ff80
ff4c
ffdf
002d
ffec
ff07
0011
fe82
ff77
009f
004c
0078
0055
0108
015c
020c
fde1
0110
0302
02ab
ffe9
0612
fc4f
fddf
ffea
0034
fee3
ffa0
ff2b
feb2
ff50
fffe
ff6f
ff19
004c
fee3
fe00
fe99
001e
005b
002e
ff5a
0047
ff78
ff46
ff66
03de
036d
ffbd
0091
fd81
fe51
ff91
fef6
fe81
ff35
fef0
0033
ffe3
ff77
0049
001c
00a8
ff1e
ff59
ffe0
fefe
fffd
00b7
ffe7
ff6a
fee2
010f
fed7
0058
0331
0194
fed8
fd1c
00a7
ff16
fdbc
fea6
001e
0020
0068
fe98
ff9e
ff2c
0102
008e
0020
ff27
feac
ffeb
ff9f
01d2
ff12
ff5d
ff21
feb4
0143
0238
02a8
ff25
fdb6
004b
0080
00bc
ff88
0100
004c
ff17
fed1
ff98
ffe6
ff82
0026
0178
ffbc
ffa2
ffc7
ffdd
ff91
feba
fe8c
ff4a
fe34
fd68
ff56
01ff
0242
ffdb
ff97
0124
0065
00d8
ff5a
ffc7
ffb7
feb0
ff76
ff94
ffa1
ff00
008b
0196
ff93
00b5
fe78
ff44
ff0d
fe77
fde0
fe92
fccd
fcdb
fc99
0089
0376
0051
021a
ff68
01b1
00a4
fe81
ffd4
001a
ff55
0075
008d
ff3f
0015
0044
0033
000a
002e
ff72
ff7c
ff05
fdf4
ff08
fe99
0015
0044
00f7
052c
0365
0006
ffe3
fca0
0043
0167
ffe3
ff41
fe77
006d
00aa
001e
ff30
ffda
ff75
0111
ffca
009f
ffb1
feaf
ff1d
fefb
003d
ff15
0113
001c
011c
ff52
0414
0171
000f
fcb7
ff9c
fe5c
0097
ffde
ff75
ffd5
00b7
0140
0016
ffce
0021
ffd6
ffee
fee1
ff66
0012
ff46
ffc7
0051
0161
001f
00ad
00b3
0134
03c3
00ae
0272
fe2e
ffc8
ff43
0008
004b
0131
010a
0161
00a2
fea3
ffb4
0134
fe84
ff49
ff5d
003e
ffce
00b7
ffd3
ff42
0121
01a2
01f1
0109
0620
02d4
0008
032e
002b
0070
011b
0237
01fd
0213
017b
ffa0
ff59
0017
0043
0079
ffdb
0106
0088
000d
ffe9
00df
01bc
0154
012e
03dc
00aa
fe71
0565
0180
0160
030d
03a8
016c
fe68
fe13
0183
fff6
ffed
00ec
00f1
0074
ff49
000c
001f
0052
0074
011c
ff9f
0093
fff1
ff4c
017a
0112
ff07
003a
0737
0013
0159
0206
02f9
fecc
fe28
0148
016c
01f0
00ac
00c6
ff95
007b
00ed
013f
013f
0086
ff8b
008d
0024
0022
ff94
0057
0063
0074
0084
00e1
0113
004c
0004
fffc
0446
ffe2
005f
009c
0076
01a6
00ba
017e
00c1
0041
006e
0164
ffad
003f
0111
0142
0197
01b3
0047
016e
02ca
0315
0270
ffa6
fdad
fffd
fff9
0006
00a0
fdc7
fef9
0045
feb5
ff72
00aa
ff85
fed2
0091
00d5
0082
004d
0066
00e1
ff6e
01a3
00f5
fdb3
01d7
ffe0
ff05
05f8
01ad
0282
fffa
fffe
0003
fcaf
fb88
fdc5
ff01
00b0
0049
0088
010b
00aa
002f
002d
0104
01dd
0092
00ce
0167
00e7
00ae
02f6
ff58
fc28
fd13
fbb1
ff17
0236
0002
fffc
0008
fffe
fe75
0024
0095
feea
0028
01a9
01e3
00e4
000e
003b
01bb
fe72
fab6
fe7b
0428
03ac
ffec
0150
fcf9
fd13
029e
0018
ff78
fffc
0006
0005
fffa
0004
fffa
0218
02b0
00a8
0014
00e0
febc
0019
ffe1
fe4c
008c
02b8
0073
0029
fe6c
fe03
02ab
0206
0072
fee9
0082
0009
0007
0000
fffb
fff8
fff9
0003
0005
fffb
0003
fff8
0000
0006
fffb
0004
0007
fffa
fff2
0067
005c
fff9
fff7
fffb
0006
0004
0002
0007
0002
fffd
fffa
0007
0001
fff9
0003
0001
0005
ffe1
ffe2
ffc2
ff81
ff75
ffec
000e
0052
0022
ffe1
fd6f
fdb2
feeb
0181
fff4
ff46
fef3
ff08
0008
0004
fffb
ffff
0002
0002
0005
fffa
fffe
ffc7
ffca
ff1c
fde4
fea0
00c1
011f
049e
02f8
ffe1
feed
feb8
00d7
00f5
ffaa
01c7
024d
0141
ffdb
00c6
014e
ff65
0025
fff7
0001
0008
0006
ffbf
ffc6
ffbf
0289
0171
ffe2
ffc3
fd0c
00f1
017e
0287
0107
0189
ffaa
ff7b
013d
025d
ff81
0189
012f
00c7
0114
0369
fda4
fffb
fffa
fffc
001c
0089
01c7
00f4
ff7b
0129
016c
015a
0060
006f
0188
016d
001d
007b
013d
ffd5
0008
016b
005c
ff1f
0005
0022
fe0a
019b
0350
0380
0003
0004
fffb
ff55
0220
0230
002d
0139
005b
fef2
0005
ffd5
00ea
0089
0009
0051
ff79
00c0
005d
ff8b
ffde
00fe
feb4
ffc6
00f3
fede
006e
0011
ff0d
0005
02e6
01e5
0360
0055
000e
002c
ff25
0048
ffe1
ff8a
ffc8
ffe4
00b8
ff9f
ffd5
0003
ffce
0081
001c
0069
ff84
ff95
00c8
032d
00a2
0340
034e
ffd8
04b0
0049
00a7
ff95
021c
00e5
ff6c
fff0
ffa5
ff71
ffbe
004d
0030
ffec
ffe2
008d
005d
00d2
009f
00b9
ff96
00b5
ff39
0218
019d
02e1
0400
ffbe
fc06
fd4a
ffcf
02a2
0218
0123
ffee
ffe0
006b
009d
ff55
ff86
00c9
0020
007e
00c0
0034
00da
0105
0080
0044
00fe
fe4c
0158
0278
0262
00f0
ffee
fed5
ff7f
013d
0362
ffbc
0007
0011
ffcb
fff8
fff2
ff14
feed
ff29
005e
ff32
001c
009e
000d
001d
00ec
00ff
01f5
ffa4
fe64
016d
00a5
ffbd
0001
fffd
0123
031d
007f
ff71
ff93
000e
ffb0
fe81
ff64
fee2
fd6e
fd9f
ff41
fe82
ff7c
003a
0015
ff7c
005f
ff0f
009b
ffff
fe21
0026
019b
ff51
0009
ff87
fe28
014d
0141
ff17
fe67
fe72
fe67
fd83
fdf5
fe9b
001c
0190
00f5
0010
ff7f
ffc5
0020
0056
006e
ff85
fefb
fe5a
fdeb
01ad
fe00
fe96
ffc2
ff8d
fbb8
ffa2
ff3c
ffcc
fe3a
fdfe
fe97
ffa0
01b0
0118
013d
01bb
0185
007f
004f
0054
006a
ffb0
0114
fee6
fedf
fee7
fca3
fd01
ff97
ff4b
ffa2
fefd
fc43
fe19
fed0
0161
0089
008c
017e
0079
0114
0007
00fa
01ab
00fb
0052
009a
0005
0007
fffb
00b4
00ab
fe92
0075
00ec
fe1e
0023
fe20
0020
0133
fbf8
feed
fed8
fecc
00d0
0252
0085
0083
ff19
ff04
01ad
012e
01a2
00b0
0075
0083
0012
ff5e
00ae
0050
0026
001e
02cd
ff12
fe9e
fd5d
ffd9
0229
00f4
0141
fd50
fded
ff96
fdbd
ff29
ffdf
000f
00f4
01a6
00d8
00c1
002f
0048
000d
ff4c
ffe3
010d
0043
011a
017e
0309
00cc
fec6
fff5
fff2
02d1
030c
027d
fee6
fd0b
fdd2
fdab
fd1d
ff50
feb5
ff8d
01a1
01de
0052
ff7f
ff65
ffee
00df
0070
00af
00e3
0250
01f3
05e5
03b0
008a
fff4
fffb
039b
01ea
ffd7
feda
fe00
fe1b
fdd3
fc6e
fc68
f9af
fa93
fc89
fd5d
fe45
ff70
00b1
00e7
00dd
00f4
0162
0255
ffd9
01b8
0055
fdfa
fd1f
ff5b
fc0f
03df
018c
02e0
00a2
0014
ffa2
ff07
fea2
fc47
fd17
fb7a
face
fc9b
ff68
0032
00ee
00f6
004f
01fb
0097
00e0
00b8
016c
00a6
fe77
0048
ff38
fff9
fede
fef8
03f2
00df
007f
007e
ffd7
ff69
0009
021c
01ce
0052
fe53
fe2d
fe5a
ff57
ffb3
0069
ffaf
00aa
0118
012e
00db
ff3d
fdc5
01ca
ff2d
fffc
022e
ffff
01b6
0241
007c
00d8
ff71
0069
0053
007f
011f
0089
006d
000f
ff42
ff12
ffa3
0024
fef2
007d
fff9
0041
fe5e
ff0c
fd22
fef6
007d
fe8f
03de
002d
ff39
018c
005f
0007
00dd
0080
fedd
0015
ffab
0060
0149
0046
ff6b
ff9f
ff81
ff3d
ff42
0050
ff63
fea4
ff18
fdc8
fd5f
fe83
fffa
fe90
0126
0021
0150
ff55
ff79
004a
003f
0009
ffd2
ffc4
0023
ff15
0086
ffab
008d
0007
ff5f
fe95
ff60
ffd0
ff3d
ff5e
0117
fe75
0317
002b
0009
fffb
fffe
05d2
066f
0107
00af
ff43
0079
0017
00c6
00ab
00cd
ffa2
016d
00d2
ffdb
ffee
ff9a
0176
0057
00a7
fe4a
fbc0
fd82
0059
01d9
00b4
0004
fffe
fffd
0098
0519
0258
00ca
020e
01c0
ff31
ffef
0064
fff2
ffa0
0109
00b1
fff6
0052
0060
ff7a
fd68
fd7f
ffa9
fe6e
fe9a
fcc8
0005
ff36
fffd
0008
0009
01c8
fd9b
019a
023d
0169
0112
0060
00cc
02cd
0149
00ac
ff9b
ff58
00b0
fe4a
fed1
fff1
0178
ffb8
ffe5
fe5b
fefb
fe4e
0129
003e
fff9
0003
0006
0000
00ed
fdb1
013d
ffc7
fd1a
fced
fe5b
00ac
002d
ff46
ffc7
00b3
00ee
ff89
ff8c
01eb
0232
030d
043a
02ad
032a
0050
fffb
0009
0007
fff9
fff9
fffb
0004
ffd1
ffe3
feae
fec7
ff49
ffa1
feed
ffa4
ffa0
fdcd
ff9e
ffc2
feb2
fcb8
fd17
fc82
fe56
000b
0064
fffe
0000
ffff
fffa
0001
0006
0002
fff8
0006
0005
fff8
fffb
ffff
fffe
ffff
0009
0000
00a1
00ab
0005
fffe
fff9
0005
fff9
fffe
0002
0007
fff8
fff7
fff8
fffb
0000
0004
0003
0001
ffff
fff9
000b
001f
00db
00ea
00b2
00dc
ffd4
ffe5
00ff
0376
0575
04c6
02cb
02ec
035e
ff75
ff89
fff9
011e
0124
0003
fff8
fffd
fff9
fffd
fffa
0156
0001
fe43
0038
009e
00df
ffec
ffb4
002c
01a4
fe09
fe39
011f
0106
feee
0320
016c
ffc3
fff6
ff98
0029
00f0
ff91
ffb3
0003
fffa
0009
fffd
ffd6
ffab
037c
0182
ffa8
fba9
ff10
0194
0202
ff6c
012e
030e
0086
fe1f
fe1e
ff71
00e5
01e7
ff3d
fe57
febc
fd98
0214
0483
052c
0003
0000
0015
fe21
ffad
ff71
fd73
ff5c
00e6
00b6
0143
fff1
00d9
0031
ffd8
004f
0123
0063
0002
00ba
ff38
fffe
0042
00d2
00f0
00bf
0342
03c2
fffc
fff9
fffe
fe3d
fd93
014b
025e
015d
0102
006c
0098
0177
00de
00b6
ffca
0046
ffc3
ffb4
006a
006b
ffc7
00b4
0223
02cd
01f6
ffd0
01ff
ffe3
ffdd
ffff
0174
00ff
ff4b
002e
0127
ffcc
00c8
002b
ffad
010b
00fe
019e
003b
009c
011a
ffd3
0059
0111
0014
ffd0
0093
fe74
fe80
ff80
00aa
fead
029a
ffc9
0199
00fc
ffbb
fcbb
00c1
003a
fffa
0147
000f
00ed
0096
000f
ffb4
017c
010e
0152
ffcd
0110
0060
0114
013a
ff8e
ff6a
fe69
0269
0334
034e
ffa0
001c
007b
fec8
ffee
0087
0042
ff3c
ffcf
ff1a
004d
0028
011e
0153
0114
008c
0062
ff55
fe2c
ffd7
ff13
feb6
ffbc
006c
fdc3
fecd
008b
004d
fff2
003e
01de
fd03
00a7
ff08
ff83
ff64
0010
00fb
0073
005d
007f
00ba
006f
ffc3
fd5d
fe13
fe23
fcf6
fe4e
fd10
ff41
ff91
fc99
ff3c
fe92
023a
0001
ff0b
01d0
fef1
ff56
00f6
0203
ff43
0124
00a5
014b
00b6
012c
0081
fda4
fcad
fe9a
fd93
fe99
fda0
fed3
fe9c
fdf1
fe06
fc45
fef1
012c
01a3
ffbc
ff25
fe57
fef4
00dc
0128
00fd
fed8
ff3a
0047
0021
ffd2
ffcb
ff9d
fd88
fed9
ffd3
ff79
ffae
ff26
fe2a
fe95
fd4c
fe1e
fe77
0084
03a3
00a5
fe18
fe99
fc7c
ff3c
0222
ff1f
00ac
0074
00e9
0011
ff8f
ffe2
ff82
febb
feee
ff40
fff9
002a
ffd6
000f
ff64
ff53
fd49
0024
fcf2
fe65
03e5
01cc
0068
fc8b
fc97
0046
00e3
ff40
0062
00ff
ff0a
ff2c
001c
ffaa
ff58
ffac
ffae
fed0
fed0
0007
0068
004e
0033
ff78
0045
ff65
0028
fe48
02a9
024f
01e0
fe19
fe9f
fe36
ff74
fe69
ffa9
ff4f
003f
ff87
000f
ffc2
ff26
003d
ffde
fff1
ff39
ffae
ffd6
feab
ffd9
0000
fe6d
0167
011b
fe04
0216
006a
0189
007a
fcc4
fd44
fce4
0127
ff40
ff1b
ffe9
0024
ffcf
ffb1
0022
ff9b
ff54
ff95
000e
ff72
0007
fed3
0009
004a
fd78
ffe8
00b1
019c
028b
02ec
0014
013b
004e
0142
ff26
ffb0
ff00
fef2
fe53
ff31
0021
0020
ffb8
005f
006a
ff20
fffa
ff48
ff75
ff60
ffa5
0013
0046
0098
ffc3
016d
ff61
0305
0002
00d6
fe44
0274
fdcc
fe22
ffac
0017
ffb6
fed3
00fb
00e1
01db
00c8
0079
ff15
fe7b
ff9a
ff15
ff0f
ffc8
ff93
0085
ff21
fdf9
feec
ff43
0201
0043
fef6
fe46
0079
0232
ffdb
fe83
ffed
fffa
ff84
0047
fef1
ffb6
feb5
fef9
ff65
ff45
ff13
ff8f
0047
0094
00ce
0151
fff4
ffac
ffe5
0067
0046
0005
ff05
007b
fec1
014c
ffe5
001e
ffa0
ff04
fd75
fe9a
ffce
ffaa
ff94
ff56
ff0b
0082
0000
00f2
fff9
004a
0093
01b8
005b
0318
0137
01af
009b
0002
ffa1
0053
017c
014d
017a
005c
003a
00b3
004a
ff39
ff64
ff73
0102
006d
0191
01aa
0004
00a8
0140
00cc
0041
0224
01c3
00dd
0278
ff94
0088
ffe7
ff7b
fcdc
ff5d
027b
009f
fe15
0005
00bf
007d
00d8
009b
0042
0108
0192
0217
013f
ffc1
00b5
0105
012c
0010
0111
023f
026f
00ab
fff5
0210
ffe7
003e
0047
fded
012b
ff20
fed5
ff78
00d9
0041
0000
0142
004c
005f
0100
0080
007c
010c
0100
00cd
00b0
ff6a
0081
021d
01ad
0147
014a
028a
fffe
0004
0157
0013
ffc8
00e2
0108
00c5
0212
0050
0194
018c
002f
0132
0130
00a5
009e
017a
0052
0003
028e
ffad
012c
0378
04a8
0352
01f9
0004
fffa
0007
febd
01c7
023c
010b
0254
02f2
018d
0186
0124
013d
014d
007a
00b8
006c
ffa0
017e
0286
011c
0280
01dc
0265
0178
032f
fe2d
fc86
0000
fff9
0008
fe7b
fff2
00d8
02c4
02fd
0355
038b
0308
0330
0155
028d
027d
0093
0245
0222
024d
0160
0485
0076
010b
02f1
03c4
06fb
ff5b
fced
fffe
fffd
ffff
fffa
ffb9
0020
0361
02dc
0213
02f1
ffe9
031f
04e6
025c
027f
02c1
025d
02cd
00b9
0135
00b8
ff96
ffd2
0148
00fc
0083
ffef
fff7
0004
0001
0005
0004
ffff
fffd
0002
ffe5
0018
ffd7
0028
0012
00d2
01d7
feee
ffe2
fee3
fdd9
fe51
fdba
ff91
010f
ff56
fe7b
0003
fffb
fffe
0000
0001
0005
0005
fff8
0001
fffc
fffd
fffc
0002
0004
0001
0007
fff7
fe78
fe02
fe47
ff72
0001
fff8
fffe
fffc
fffd
0004
0001
0004
0003
0002
ffff
0009
0005
0003
0002
fffd
ff0e
feaa
fdff
fe2e
fe4b
fe80
ff0e
ff2a
fd35
007e
0475
fe20
fd36
fcce
fcf8
fc48
fb85
fce2
fcc7
fd51
fffa
0002
fffc
fffc
0005
0003
fe0a
fe12
fd8b
fedb
fda0
fd69
fded
feb7
fdac
fb21
fd3d
0060
0100
ffe9
ff30
0096
0236
ff63
ff73
ff13
fdd7
fd0d
ff1f
0008
fffc
fffc
0001
0006
fdda
fdfe
fef4
01ce
fe44
fba8
fabc
fa6d
fb14
fcdc
fb73
fcd4
ff90
fd10
0033
fff0
fb1c
fd7f
0004
0208
013f
ff3d
fc9d
0021
0014
0006
0001
ffef
ff6f
ff0a
01d6
0042
fed0
0072
ffe6
ffc4
00bb
00f8
0084
ff30
ff39
001c
0002
00df
0069
0089
fe73
fffd
ff6c
0095
03af
014a
00be
fedc
0007
0000
fef8
ff0f
0088
fd53
fe04
ffc8
fff0
ff7f
0005
0024
00a0
ff95
000d
ff38
ff34
0017
ff98
ff94
0008
008f
ff92
fdc3
0102
02bb
ff24
0089
fff8
fe5c
00a9
fc34
00f2
0106
00be
0122
0009
ffcc
fe38
0009
ff6c
ff28
ffad
ff60
ffe1
ffe9
feac
003d
0081
ffec
01f1
01cb
0125
0141
0268
0147
fffc
fd99
0034
fd28
01b7
0113
0050
ffc3
0178
0071
ff85
0052
fe7b
007a
ffd6
0006
ff4f
ffab
fff8
00de
000c
ffd3
011a
01e0
0030
020c
029c
00d4
ffee
fcf8
02fb
02ab
002e
ffec
0073
001c
fef8
0006
ff32
fefa
feb7
ff82
0040
0056
ff7e
ff7d
0034
ffc1
0054
00a8
ff9c
ff2c
01aa
0456
0084
fd4d
ffec
fe51
0349
0134
ff0c
00a7
0019
0083
0021
0023
ff7e
006f
ff1d
ff6d
ff09
fe9f
ffe1
0002
ff48
ff8f
00f2
00e0
00d9
ffef
ffb7
fd47
017a
fd96
fff2
fef3
fdbf
0033
01c7
ff95
fe4c
0039
ffac
0072
00dc
ff72
ff60
fce0
fcad
ff2d
ff13
ffa1
002d
ff78
ff07
febe
0140
00a1
003e
fdc4
fedb
fe15
fff1
facb
fcca
fd74
fee0
0162
00bb
009b
00d3
0118
0140
0034
005a
fc33
fd0c
fe31
ff97
ff75
ff52
fef1
fe7c
fe12
ffc2
ffd2
fe5a
feaa
feb4
fb90
0000
ffaa
00c9
ff6a
ff46
0039
00df
ffc5
000f
fffa
005a
016a
0285
0118
ff86
ffab
ffab
ff34
ff59
00c5
00e0
00d1
ff64
ff80
ffe2
fd30
ff0d
fb5c
ffe6
0090
ff7a
fedf
ff2d
0057
00d8
00f5
001c
00aa
00eb
0205
035b
02a0
ffe6
011c
0028
00ae
009d
00c9
0124
00bc
ff91
feb1
fecf
0083
01dd
ff80
feca
0072
fdbb
ff27
01e4
0176
008b
0117
00a1
014b
00f0
023d
0260
0195
0103
0094
0096
0149
002b
004e
011b
009c
ffef
fc08
0098
012b
008c
fe26
ff57
ff06
0146
011b
011e
ff41
0013
010c
0094
00ca
0148
0121
01cc
00d9
01ae
00b1
0165
00af
fff1
fff9
fe3f
fed5
008e
0047
fea0
0020
0313
00d5
fff6
fe59
0100
02f2
ff0e
ff83
01af
0142
0068
005a
0038
015e
0236
01cd
0103
01ad
00b1
015d
0114
ff27
febc
ff03
ff41
fff9
ffe5
02ef
0190
0088
0007
fdc1
03d5
0080
00c7
ff9e
004d
00e6
0044
00aa
ffbb
0237
010a
0273
0171
0023
009b
ffa3
000f
fefa
ff75
00de
0010
ffae
fe30
fd76
ffc6
0202
fdac
fecf
017a
0144
01de
00dd
0120
ff1d
0020
ff06
ff4e
009e
0124
01ff
fffc
ff11
ff9b
fef3
fea2
fe91
01ec
ffe0
fe18
ff12
0183
fd9a
fc54
01d1
ffa2
fdb3
0118
00ce
0030
ffc1
010b
fdfd
fee1
fe80
fe23
fea5
fe25
ff94
fff8
ffdb
feea
000d
007a
ff85
0029
00a1
002f
019e
0051
fc1a
fc1f
feae
fff7
ffdb
03b5
fd20
fdf9
fddd
ff14
fdbf
fd8c
fed2
fef3
fea5
fe90
fea4
ff5e
0019
0015
005d
005f
0019
ffb1
fffe
0045
ff4e
fdff
fdcf
ff48
ff69
ff3a
ff01
02db
fd26
fe38
fe75
ffbb
0028
0092
00d7
ff58
ff4e
ff95
ff04
ffba
00d4
ff78
ff2e
ffe7
ffc9
0002
007a
011b
ffae
fd85
013a
fb24
0002
ff3b
ffac
0030
ff71
00da
fed9
0057
ffe6
ff65
fe85
ff76
0085
ff6a
006c
fefd
ff5e
0073
0059
0005
0101
0136
0080
ff98
001a
014f
0166
0197
0004
0007
0007
0023
febd
00a1
00b6
ff99
ff2e
009a
ff5f
fffc
0058
0052
00b6
0073
0056
005e
00b3
005c
015d
ffb7
00ca
fe8f
00c5
ffcc
0216
03cf
0006
ffff
0005
0066
00af
02e3
0273
00ac
ff7b
0094
006f
00af
0137
ffe2
003d
003d
ff22
0003
ff86
0026
01fd
0177
ff2a
ffcd
01d1
fc16
0149
fcaf
fffa
0001
0008
0231
0078
fdf3
fbe5
0034
ff61
fe97
ff0e
ffee
ffb6
fdbc
006d
ff58
fff5
ff98
0000
ffe8
ff71
fff6
00b7
0053
ff68
fa38
0051
fcce
0004
0006
fff7
fffc
0139
0241
fe2f
0061
01da
0125
006a
0006
00a9
0129
ffd8
ff74
ff15
ff37
0123
fe15
fd53
fc68
fe70
fcb0
ffe4
ff55
0005
0000
0005
fffd
0008
0006
fffa
fffc
ffe9
fef0
feca
ff25
0231
fd79
011e
00ba
ff14
0036
fec1
ff41
fd0e
ffd4
0169
03ae
0096
fe7a
ffd5
fffa
0004
0002
fffe
0002
fff9
0002
0004
fff9
0004
0002
fffd
0000
fffc
ffff
ffff
fffe
0001
0003
fffe
0002
fff9
fffa
0007
0008
ffff
fffe
0004
fffc
0000
0005
0003
0000
0007
0007
fffe
0007
0007
fff8
ffe6
fff2
0002
ff90
03f2
03ff
0410
fe9c
ff3d
ff6e
0046
ffc4
ffb5
ffa8
0011
ffe7
0004
fffa
ffff
0003
ffff
fffa
ffff
ffe7
0314
035b
ff31
fff5
00c6
fe5c
fdcd
fcd8
fe6b
fea1
ff1f
fe39
fc54
fbaa
fa3d
faf7
fdef
fc47
fcb9
fcaa
fe59
ffc2
fff1
0005
0000
fffd
0001
ffdc
022b
fde9
ffcc
0014
fdea
ff7d
ff51
feb5
ff8e
ffe7
008d
0069
fe10
0184
0121
fdf2
ff18
0261
fec1
fd7b
fe0b
00c4
0559
04bb
fffb
ffff
fffa
0050
0061
fd59
fc18
fc24
fdfd
fdaa
00bb
fde9
00a4
ffd2
005a
ffde
015f
ffa3
005e
00f0
0101
ffde
febd
feeb
ff07
feb8
fe48
fdb8
fca4
fff8
ffff
feee
0059
004a
fe3d
fe40
ff83
ff81
00bc
0001
00f3
0048
0082
0015
0080
ffa6
0046
006f
ffbf
feb3
0044
005f
feeb
fee4
fd5a
fd35
fc99
0003
fe0d
0252
015b
0216
0121
ff0b
feda
ff4b
fcea
ff89
006a
ff87
00d6
011c
ff83
0062
ffc5
ffee
004b
ff42
014f
0234
0011
ff87
ff9b
fe2e
0104
0003
fccd
02b7
038f
02c9
019a
ffe1
0173
feb2
ffb0
00e0
0013
0005
0038
ff47
ffe6
0004
019d
0036
00af
0100
0090
00c5
027b
02f0
ffb9
ffbf
0246
0482
feb6
038a
039f
fdd1
0063
00e3
017a
0011
008c
fffc
ffd9
01c4
ff47
0166
0123
0307
0165
0129
00a9
021b
00af
0058
0027
023a
fe40
fcf4
fef4
0058
0007
0028
01c5
fd6e
006b
ff27
0000
fff5
012b
016e
003c
00be
0178
0033
006b
0132
01b3
0153
018a
019e
fff5
ff21
0025
022d
fe5f
f966
fe84
003c
fe68
fe34
00f9
ffe3
012c
ffcc
fff5
0064
ffe2
ff7c
01a3
0037
0022
0042
00b9
0154
02c2
0139
ffee
00da
0054
01b7
0142
0028
fd59
00c5
003d
000c
04fb
0218
011d
fe5c
fefe
ff43
0051
fed5
fdfc
fef4
00e1
feda
ff04
fe10
fdf8
fe8d
015d
ffce
0067
0183
016b
00e6
0210
0103
fe25
042d
01cd
ffa7
01a5
fff0
fea6
fe91
fff1
00e8
fff2
fff6
0056
0010
fff1
016a
ffad
ff09
fd69
fdc4
004d
00a2
0111
0075
0030
0161
00b6
0090
ff0f
0229
0245
fffe
037c
ff60
ff97
00b7
ff97
0139
01f2
00ba
ffba
011d
0072
02ae
ff7f
ff1b
fd3e
ff54
ffc8
0067
003c
ffd3
00a1
013c
009d
0034
0005
01ef
01b1
ffca
ffc5
fffc
ff14
010c
00c6
ffda
0115
ff73
00f5
0070
013f
012e
fec7
fd68
ffac
fe7f
0053
ff65
ff75
0102
021e
0134
01f0
0293
fefe
01d5
ff63
013b
fff7
ff8c
ff5a
00b3
029c
ffeb
023e
0061
00d8
006e
ff21
015f
fd56
fe14
fedd
fe9f
ffb4
ff77
0057
0107
004f
0196
0149
01eb
0086
fbad
ffea
019e
ff7d
fe8f
ffcb
0027
01ca
0075
011f
016d
ffa6
000d
0059
feca
fccd
fd7f
fe58
feb0
ffcf
fee4
ff73
003e
ff6f
ff6c
ffd3
004b
fe1d
fa85
0163
fffe
feab
fda6
ff6e
012a
00ed
00f2
0147
0052
0093
0150
ff3c
feef
ff18
ff25
fdea
ffdb
0001
ff53
fff3
ffac
fed8
ffad
009c
005e
feff
fd43
013f
012f
fe70
ff55
fd5e
ff96
ffbf
ffc2
0038
0036
00d5
011e
fff9
fe78
fdbf
fe2c
ff21
ffa7
ff3e
ff63
fdd0
ff83
ff05
011d
00e9
feba
0166
ffd4
ff28
ffef
046b
016e
fe72
ff98
0012
0061
ff68
ffa5
002d
ffc5
ff30
0095
ffde
fefc
fea4
ff61
fff0
ffe6
fee5
ff81
ff83
00ea
fe3e
0012
0184
0087
006d
fffb
046f
0031
fda8
ff28
0052
ffa8
0012
00b9
00fe
00e5
00bb
00d0
0001
ff08
ff8d
fe3c
ff99
ff0b
fedf
fe61
ffa2
ff16
fcad
fdbe
0186
014d
ffb7
0005
0004
ffa5
002d
fe0b
ffc4
ff19
009d
ff1e
0003
00eb
0159
0048
0031
feba
ff3d
ff80
fe3d
fe3d
fd58
fe76
ff60
ff5e
fd66
ffa5
015f
046f
027a
0004
fff9
fe11
fe91
fd0c
fe4d
001f
00f1
010e
0017
ff69
ff8f
008b
00e3
0076
014e
0014
0026
0001
feec
fef8
fecd
00cc
ff86
fed0
000a
046a
02ff
fff8
ffff
fe78
fc45
fdd6
ffcb
01f3
00c0
0021
ffdb
01e7
018f
0101
ffc6
00b6
006b
ffca
0132
ff62
fd62
fbd5
fe6c
fda4
fcc6
fe40
ff45
fed8
0006
ffff
0000
0094
fe3c
0312
01a1
ff37
ff8c
000d
000e
016a
fff7
00d3
fff6
0056
006e
fe8b
0093
ffd0
fdf3
ffb0
0046
fd44
fc72
025a
fe9c
ffd4
ffff
0003
fff7
fd54
036b
031d
0076
fd55
ffc8
fdf8
00e7
fe90
0102
ff1a
ff52
fcdd
fe93
ffea
fd8b
fb0f
00e9
011e
fec7
fec7
0006
03c1
000e
fff7
0009
fffe
fffc
fffd
0065
ffd9
fd86
fbf1
fe3e
0089
003a
00c9
00eb
00e1
0158
01f2
01f3
0377
01a3
0123
0495
01e3
fe34
0059
02b3
0121
012b
fffa
fff8
fffe
fffc
0008
0008
014f
023e
028d
01f4
01d7
0131
03bf
0267
0135
02da
03dd
017c
fece
00a9
ff74
0058
00e9
006c
ffcf
0008
fffd
fff9
fffc
0006
fffb
0002
fffa
fffd
0008
fff8
fffa
ffff
fffb
0004
0004
0005
0003
fff9
fffc
fffa
0002
fffe
0003
0005
0009
fffc
0008
0002
fffe
fff8
0002
fff7
0009
fffa
0007
fffe
fffe
fffd
0004
0008
fff7
ffff
fffc
0000
fffa
0003
fff8
0001
fffb
0003
0008
0003
0009
0000
fff7
0001
0001
fffe
0008
fff8
0008
fffb
0007
fffa
0007
fffd
fffa
fffc
fffb
fffc
000a
000f
0008
fffb
ffff
fffc
000f
000b
000f
0006
fff8
0004
fff8
0004
fff7
fff8
fff8
fffc
0007
fffd
0006
fffe
0006
0001
fff8
fffe
0004
fffb
000c
0011
000d
fff7
0004
fffe
0008
000c
0007
0000
fffe
fff8
fffc
fffd
0003
ffff
0001
0004
0001
fffc
fffa
fffd
0001
0006
fffc
0000
fff8
000a
0013
0008
0015
ffff
ffea
ffec
ffec
0007
ffe9
ffed
fff4
fff2
0002
0003
0000
fffe
0001
0003
fffe
0003
0003
0007
fff9
ffff
fff7
fffb
000a
0010
000c
000c
000f
ffe9
000e
ffef
ffeb
fff5
fff5
fff5
fff2
fff3
fff5
fff5
fffa
fffd
0005
fffc
fffc
fffe
fff9
fffa
fffc
0006
0002
fff7
0014
0011
0009
0007
fff1
ffec
ffee
ffeb
fff8
ffe8
ffee
fff0
ffec
ffef
fff3
ffee
fff9
0009
0001
fffb
0007
0004
0002
fff8
0004
ffed
ffef
fff4
000e
0012
fffa
fff6
ffe9
ffee
fff2
ffe9
fff1
ffec
fff1
ffe8
ffed
fff0
fff6
ffef
0003
fff8
0009
0004
fffc
0002
fffa
fff8
0007
fff4
ffec
fff6
0006
ffee
ffef
ffec
fff2
ffec
fff6
fff6
fff6
ffeb
fff7
fff1
ffee
ffef
fff7
ffee
fffe
fffb
fff7
fff9
0000
fffa
0002
0009
0004
fff8
fff4
fff7
fff2
ffee
ffea
ffe8
ffe8
fff9
ffef
ffed
ffeb
fff8
ffea
fff7
ffe9
fff5
ffe9
fffb
fffe
0005
0001
0005
fff9
0008
0001
0000
0008
0006
000a
fff4
fff9
fff1
ffe7
fff5
fff5
0013
000a
ffef
fff1
ffed
fff5
fff0
ffec
ffe9
0000
fffc
fff7
0006
0004
0003
fff8
0001
fffb
0008
0006
000e
0015
fff3
fff6
fff5
fff3
fff0
0016
0007
000b
ffef
fff2
fff5
fff2
fff2
ffe9
fff2
fffb
fffa
0009
0003
0008
fffb
0009
fff7
fff9
fffa
0003
0014
0009
ffec
fff3
ffef
ffef
ffea
0007
0015
0014
ffea
ffeb
fff6
fff1
ffea
ffef
0008
000f
0015
0004
fffc
0000
0001
fffd
fffd
0008
0009
0001
0010
000a
ffeb
ffeb
ffe9
fff5
fff1
0016
000f
0018
fff0
fff1
ffee
fff8
ffec
000c
0013
000b
000e
000e
fffd
fffc
ffff
fffd
0002
0005
0002
fffc
0010
0009
fff3
fff2
ffed
fff8
ffee
0006
000f
fff9
fff8
ffeb
fff7
fff6
fff0
000a
0008
000e
000e
0011
0010
fff7
0005
fff9
fffc
fffe
ffff
fffd
0009
0000
fff3
ffef
fffa
ffed
fff4
ffeb
ffea
ffec
ffeb
fff7
ffe8
ffea
ffea
0008
000b
0014
000f
0007
0017
0009
0009
0006
fffe
0004
0005
fffe
0001
fff0
ffe9
fff0
ffea
fff1
fff5
ffeb
fff5
fff7
ffe9
fff4
fff6
fff4
ffed
fff8
fff9
fffe
0003
000e
0011
0015
0001
ffff
0004
fffc
fffe
0006
ffef
ffeb
fff7
fff9
fffa
ffee
fff3
ffe9
fff0
fff2
ffea
fff7
fff5
ffe9
fff1
fff9
ffe9
fff0
0015
0014
0010
0008
0001
0004
0005
0000
fffb
fffa
fff5
ffe9
ffeb
ffe9
ffed
fff9
fff0
fff7
ffef
fff7
ffe9
fff6
fff6
ffec
ffe8
ffef
ffec
fff9
ffef
0014
000d
0014
fff9
fff9
0001
ffff
fffc
0006
fff3
fff5
ffea
fff2
fff0
fffa
fff6
fff0
000d
ffeb
ffeb
fff7
fff3
ffed
ffe8
fff5
fff0
ffef
ffec
fff5
0007
ffff
0002
0004
fff9
0001
0005
fffa
fff4
ffe8
fff7
fff8
fff1
fff9
000b
000f
0013
000e
fff9
fff2
ffed
ffea
0016
0014
fff4
fff5
fff6
fff6
fffe
0008
0003
fffc
fff8
0008
fffa
0000
fff1
ffed
fff6
fff2
fff1
fff2
fff0
ffe8
0007
0017
fff7
fff7
fff4
0014
000d
0014
fff2
ffed
fff7
fff1
fff8
fffc
ffff
fffe
0002
fffa
fff8
fff9
0005
fff9
ffe9
fffa
ffed
fff3
ffe8
fff5
fff8
fff3
fff6
fff1
ffee
fff7
0003
ffff
fffc
0002
fffe
0008
0004
0001
fff9
fffa
fff8
fff8
0008
fffe
fff9
ffe8
fff3
fff4
fff1
ffed
ffee
fff2
ffe9
ffec
ffeb
fff0
ffe8
ffee
0000
fff7
fffc
0000
fff9
fffe
ffff
0009
fff7
fffa
0000
fffc
ffff
fffe
0006
0009
ffea
fff1
ffe9
ffee
fff8
fff8
fff5
fff1
ffeb
fff3
fffa
fff3
fffe
0003
fffc
fff9
0006
fffb
0006
0004
fffe
0004
0003
fffc
0005
fffa
0006
0000
0005
fffb
fffb
fff3
fff7
fff7
fff8
fff0
ffe8
fff9
fff3
fffe
fffb
ffff
0001
fff9
0005
fff8
0000
fffc
fff8
fffa
0000
fffa
0009
0001
fffa
0006
fffb
ffff
fffa
ffed
ffe8
fff4
ffef
fffe
fff2
fff0
000b
fff8
0008
fffb
0004
fffc
fffa
fffe
fff7
fff9
fffe
0007
0002
0007
fff9
0006
0001
fffd
fffd
fffa
0005
fff8
fffb
0009
0001
0004
fff8
0008
fffe
0006
fffc
fffa
ffff
0003
0003
fffc
ffff
fff8
fff9
fffb
0007
fffa
ffff
0007
fff9
fffb
0007
0006
0008
fff8
0007
0040
004f
fffb
0008
ffff
fffa
0004
fffa
0000
0005
fffd
0003
0003
0000
fffc
0003
0007
fffd
0005
fff7
fffc
000f
0007
00aa
0000
fffa
0008
0068
0273
049d
0026
fe1e
fba9
fcfc
0217
0122
fecf
fdc8
fd6b
fd79
ffff
ffff
0009
fff8
0008
0008
0092
0004
015e
0034
00d6
0257
0037
fc68
fb94
fd5f
ff59
fe5f
ffc0
00a6
ffcf
fe9f
fd58
0072
ffd8
0098
fff1
ff05
0182
ffb7
0003
0000
0006
fffe
02fe
02f7
004e
fe74
00e4
036d
008a
fdee
ff29
fe9c
ff8e
fd33
fb92
fb88
fdfe
00bf
ff34
0163
0292
015b
0086
fdcd
00e3
fdfc
fef0
fff7
0007
0004
02ed
0348
0319
fe3d
fee8
014c
fffb
fb36
fe32
0083
ffad
0054
fee2
fe82
fee2
0010
ff26
013a
00a7
00d8
ffc9
0122
feda
fc19
ff06
00bc
0008
0009
02ed
030c
020f
022f
00a5
00b7
fbf8
f858
fb1e
ff8a
febd
fe8c
feb3
ff13
fda4
fe93
ff6d
fe3c
ff19
0001
ff77
00b8
0022
fd13
00e3
0154
fff8
ff80
fda6
0160
01cc
fd6e
fbed
ff71
feba
fc1a
fd63
ffd5
ffe7
fea2
ffa3
fe9d
000b
ffe3
010e
fdf8
ffc6
ffef
ffa0
00e0
ff5f
ff5a
0169
01c1
0003
fd3a
fdd9
ff6b
fc6e
fbd8
fcc6
0065
0042
ffa0
ff5e
ff87
0075
00b7
00a7
ffd3
010f
0070
fff5
fffd
0172
0025
0027
ff91
fce4
fc05
0058
00dd
fffb
fc45
fdd2
0031
fd71
fac0
fef0
0035
00d6
fe71
ff41
fe1d
0021
008c
0046
ffd4
fdae
0091
007c
006d
ff8c
001d
ffa0
ff22
fdfc
fc72
fe48
fef4
ffc1
ffde
fd4c
fef8
fcd1
fbf5
fff7
0198
0189
ff83
00bb
0050
fe2e
0044
00ca
ffe3
0060
ff47
0022
ff9e
fd73
febc
0096
febb
0037
fc9b
001c
01a6
ffc9
013f
fe54
fdf3
fe75
fee0
fb9c
ff81
00eb
0007
0037
ffed
feed
0091
0101
011a
00a0
000c
feea
ffd5
fea1
0089
ff55
fcf6
fe97
ff29
006f
01b2
ffc3
00cd
035b
ff4e
0365
006a
f959
fba7
00b0
fef6
0029
ff48
fee4
005a
00f0
00eb
00b1
ffc3
0056
ff63
fec0
01ff
fe6a
fb9f
fa8e
fbf2
fda0
fde1
0006
ffe5
0055
ffd6
0267
fccf
fa89
fd0e
fd29
fe87
fe4e
fece
009d
0168
0123
018a
00bb
ffbf
003b
fe37
fdff
0273
ffd8
ff1e
00ec
feb1
facf
fd3c
0133
00c6
fc4a
0060
fe60
fde2
fbc4
feea
fe69
fea9
fff7
0012
002f
0194
0234
0074
01b3
00f8
010e
fe97
002b
01c5
fe54
ff1a
fddd
fcc8
fada
fd8e
ff94
00a3
0218
0262
02b0
0027
ffea
ffe1
feb3
0087
0101
005a
ffb5
00e6
00f3
00c6
01a2
009d
00ee
ffed
ffbe
0115
0067
010b
fffe
ffdb
fb66
fdf3
ffac
0033
020d
0285
0119
0115
009a
00d9
ff3b
ff5b
0071
00be
019b
0224
00bf
ff9d
0173
01cb
fece
fe02
ffc7
01f7
00af
01b1
014e
fb47
fef7
fefc
fffa
02e9
005d
003c
011d
02ce
ff1e
fffb
0057
0029
ff64
0166
000a
01b8
0085
0095
023a
ffe8
feaa
00a5
00c7
002d
ffd4
0040
00c1
f8d7
fea8
ff2c
ffff
0309
fd8a
03b4
0217
0114
fd82
fffd
006d
ff00
0057
005b
005e
0177
0102
ff7e
febf
fd32
fe25
fff3
ff75
fef9
fef5
ff6b
fe2a
fc7b
fdfa
fefd
fd34
0316
fc9c
0312
0055
fc63
fb76
fe50
fdf4
ff62
ff8c
0041
00f2
0128
ffa8
fdfb
fd30
fea7
ff31
fe7d
fdd9
feea
fe1e
fecd
fb4b
fd54
ffdb
029e
026d
ff1f
ff75
0159
fdb0
fc31
00c6
0084
fdb1
ffd0
ff39
011e
0125
00e2
ff9b
fe7b
fe9e
fe59
fe96
febd
fde8
fd10
ffba
fe6c
ff1b
fe8a
0247
0363
fff9
fe95
fd32
fc0d
ffac
ff13
002f
feed
ff50
feb9
ffe9
00d4
0115
ff83
012d
0032
00c1
0006
ff0f
ffa5
ff73
fe12
fe24
fe89
008c
fc97
0252
030a
02e4
0100
00a4
ff7c
fda5
fec1
fe82
ff12
ff82
ffc6
001f
ffa3
0047
ffbe
006d
0008
0035
fde6
00e3
fe88
00b4
ff55
ffe0
000b
0181
fe72
009d
0000
02e2
027a
0194
ff57
ff44
01e0
0091
ff50
ffe8
ffad
0058
fdbd
fe2c
ff4f
0029
ff3e
0093
ffe8
0022
fdb1
fefd
00d5
01cb
02c9
01a0
02b4
0327
0006
0003
0001
fe7f
fd3a
ff98
01ce
010a
00c4
0029
ffb6
ff7f
ff57
00a9
0039
ff22
fef4
0072
021c
002f
fdec
fdfa
fe99
fe57
003f
00e2
0202
0314
0002
ffff
0006
fe6f
fd22
0126
02e1
fe3e
ffdf
ff56
ffd8
0036
ffbd
fea5
fe74
ff36
fe3c
fe44
feff
00d6
00c7
0061
032e
00be
0195
01f3
0207
016f
fffb
fff8
0006
0001
0213
0397
00c8
fe0b
0036
01b2
0036
fd6e
012f
fdb6
ff5b
fefa
fd1b
fc9d
fcf3
ff85
fedf
fe27
013b
00ef
01e3
02d9
fe84
fe89
0005
fff9
fffa
0007
0107
007e
fef1
feb6
025d
02e2
fd18
0220
00e1
ffbc
fd22
fd06
fd78
ff96
fd1a
feca
0108
0076
0017
fe31
fd64
0005
008d
fff8
fffe
0000
0007
0008
0002
0011
0050
0065
0051
0105
012e
0063
fe96
01ad
0083
fcb1
00a5
0050
03d7
036d
0200
0007
0001
fffb
0008
fffa
fffa
ffff
0000
0002
0005
fff9
0007
0001
0005
fffe
0006
0008
fffb
fff9
fffc
0005
0008
fffb
0007
0004
fff8
0003
0004
0004
fffa
ffff
ffff
fffe
fffa
fffc
ffff
0008
fff8
0006
fff8
0002
fffb
fec9
feb7
feca
fff8
0058
ffd8
ff5c
fe59
029d
01ed
ff59
feca
ffad
ffaa
ffc3
003e
fffd
ffff
fff7
0006
0009
0008
0003
0005
0003
fe08
fe6d
fdb2
fd94
fdc1
0059
02d5
033c
fe3b
fe7c
ff3c
ff74
013f
0077
fcdf
fb9c
fd36
ff36
ffdd
ffd6
01a7
01fb
0240
0005
0006
0003
fffa
0304
01d9
fe2c
fde9
0068
02a0
0151
ffb6
01ed
009f
028a
0004
fe49
003a
ffab
fd64
fc56
f9d2
fd4a
fd41
feb4
ffad
0254
0296
0005
fffb
fff7
0005
0304
015b
0090
01a4
0287
ff9b
012e
000c
0162
01ac
00b6
ff36
ff16
fff7
0087
feef
fd22
f9a9
f86f
fda4
fb4b
000c
011b
0195
ffaf
0006
0009
fff9
02b7
019c
0332
02bc
02a0
01c2
00dc
0050
fffb
001e
0056
019a
00a7
0180
ffc0
fe8e
fe68
fe07
fa81
fbbd
fe6c
fef5
0055
00f1
fe6f
fffb
fffd
0048
fdba
009e
0068
febd
0272
00d3
ffc6
ff9c
003d
0130
00ea
00bb
ffe2
ffb1
ff6e
ff41
fed2
fde1
fd5b
fa9c
fb84
ff72
fe3e
ffb8
ffac
fffb
001e
00ba
fe44
01a2
01d9
fee6
020b
fffc
fffc
00bd
ff1c
ffc3
ffbe
ffe4
00c4
0047
0088
ff84
fdfa
fd26
fac5
f8cb
f9e3
fd1e
fdaa
fe99
ff5a
ff47
0023
0033
fed3
ff5d
0111
0004
feaa
ff86
fea5
004d
0015
ffa8
ffa7
018b
01ec
01d0
0026
016f
ff26
fcc6
fe3f
fb0d
fd73
fdd3
fd21
fc76
fd72
ff52
ff93
fffc
fe09
ff96
0086
0251
0028
0037
fee2
ff6c
feaf
00ad
ffd4
0219
02a5
03d4
011e
001b
fe13
fe2b
f72f
f9b8
ff30
025c
0252
fdc3
fefc
0001
ff75
0031
fda1
fef7
fc0c
ff8e
ff83
ff94
fdd6
fd69
002b
007c
0066
02bd
03a6
0198
ffab
ffb0
fd7b
fe22
f8aa
fc88
ffd6
01ae
00a1
002d
021b
02f0
ff52
00cb
00e4
fecb
ff20
fee9
ff2c
ff82
ff32
fedf
fefb
ff1c
ffd8
014d
01f4
ffaa
fe6e
fef9
fe4c
feed
fe6f
fc5c
fe89
ffce
fe62
feb2
ff8c
ff8a
0045
0045
026d
ff14
0003
01a1
ff78
00aa
00bd
0070
ffea
fef9
011c
009f
002f
0005
ffc8
fe8a
ff0b
00b1
fef5
ffae
fefc
fe95
020b
0243
fe5e
ff2a
0191
ffe0
0071
ffc9
002b
009d
0026
0026
ffb5
0062
0055
ffb7
007e
ff86
003b
ff9f
00a9
0004
ff55
0068
fe66
ff27
fffd
00ee
0237
0628
039a
02ce
ff25
ffd0
ffe9
02a9
0103
ffcf
fec8
fdc9
ff91
fff8
fefa
fe1b
ff93
ff36
0111
fff1
ff19
0088
febf
0075
ffb1
ffb3
0028
0263
ffef
ff54
03dc
046d
ff4a
ffff
0064
015c
001b
fd3c
ff89
feff
004a
0016
ff94
ff9b
ffb8
0030
001e
0060
0067
ffdb
fe69
001e
0042
003d
fef6
ff15
00db
0059
05ef
ffe1
fff8
024f
004b
0070
0038
fe02
fdbb
fe9d
fdf2
ffb2
ff88
ff90
feaf
ffe2
014b
ffcf
ffdb
fdb3
00d5
0068
005e
ffb0
00e4
ffa3
012e
0245
074d
0059
fffc
01fc
0219
00d5
fff9
ffb0
ff29
ffea
ff6f
009b
0046
fefe
fef0
ffd9
0216
00fe
ffaa
ff64
ffb4
001f
ffc9
fffc
0184
0125
ffd6
02d8
01aa
037c
0080
000e
01d9
0106
00a3
01da
0133
00b8
00d5
006e
fff7
fea1
fda8
ffaf
00cc
003f
ff20
0064
ff11
ffd7
01a9
0182
0073
0131
0070
0178
fe02
050d
fffd
ff4e
fdfa
ff13
018e
026b
ff9e
0159
ff6e
ff46
ff50
fefc
fdb7
ffea
ffe7
00a0
0113
0013
008c
00b4
014c
0085
00b0
000c
012a
0312
03a6
02b9
fff7
0032
fe48
feed
ff73
0002
ff8e
0140
ff90
fffb
ff70
0074
ffd0
ffe7
00d2
0077
009e
00b4
00ce
001b
006b
00a7
00af
00e0
0299
002e
0062
fffd
fffa
007f
fc35
0112
ff34
fc83
ff5e
ffe1
ffd0
0044
0018
0086
0055
febe
ff4e
fff9
00b2
ffe9
001b
003b
feff
fe74
000d
fd93
feda
001e
fef4
fffa
0001
fff9
0321
0583
048b
fea5
0004
019b
005d
00a1
004a
ff35
ffc4
ff43
ff7a
0045
fed4
ffac
01df
01a9
019d
001a
00b7
0138
029f
01ec
fe53
0001
fffe
0006
02b4
0293
038c
fff8
004d
0175
fe36
00bf
0012
0071
ffe4
ff65
ff11
010a
ff70
00e7
ff1e
0082
ffea
fd4f
ffcd
001c
0156
00c6
ffa9
0008
0004
fff8
0273
0580
03bc
00f8
fef5
0107
01fb
02bf
01a2
ffff
feba
0053
0113
ffa9
ff45
003d
0014
00d9
fdd9
fecf
fe91
0132
02c9
04ac
0354
fff9
fffc
fff8
0003
026f
02ed
039d
04e7
0515
02af
ffe3
fc36
0175
ffa8
fe1f
ff2a
fdc5
fd3a
fc41
ff85
ff72
01eb
ff61
ff4f
fdbc
ff4d
0011
0013
0004
fffd
0004
fffc
fff8
fff9
fe60
ff48
ff57
fdd4
fe60
00d8
0236
fe86
fd10
fb55
fea5
0022
ff4e
002c
ffbb
ffdd
ff03
fd1a
fda0
0002
0000
0006
0003
fff7
0006
0009
0004
0001
0004
0008
0006
0003
fff1
ff6b
fae3
faf7
facf
facd
00a2
ffe0
ff60
00c9
00cd
ff9c
ffbf
ffcb
0008
fffb
fffd
fffb
0007
