ff98
0134
ffe0
00a6
fe14
ff8e
ff04
ff72
ff46
000a
010c
ffee
003a
000b
0005
fdf2
ff69
fffb
ffc2
fe3c
fff7
009b
0004
00b9
ff53
ffdd
ffb6
fff0
ff14
ffbf
ffef
fff7
ff43
ffb4
ff24
0046
00b2
ffb0
0055
ffe2
004d
ff0f
0064
fed1
ffe5
0030
ff7d
ffe2
ffd4
0018
007d
ff47
ff3a
000c
0046
ff71
0032
ffa1
ffe1
0061
ffbf
002e
ff45
ffa3
fef3
fff5
001f
feb2
000d
ff0c
0009
ffdd
0020
fedb
fffd
ffc9
fed2
ffe3
0149
00c0
002c
ff23
ffdd
0079
ffb7
ffb7
0038
0167
0035
0060
ffea
0001
ff8c
0035
ffb9
007f
000c
fdbc
ffe0
ff6e
0008
ffb3
0067
004c
004d
ff4c
0086
fea2
009e
0042
ff2d
fffb
0035
ffd4
003f
ff76
005f
ff4a
ffee
ffe1
fec7
ffe7
feb0
00a4
ff33
004b
0050
004b
ff20
009e
ff8c
ff99
ff20
ffbe
fec0
0051
0002
00d1
004c
ff70
ff66
ffc7
0044
0052
fe96
00a4
ff2a
0031
00b9
005b
ff7c
0094
ffb1
ff5f
ff24
ff3b
005a
ffd7
00c0
ffe4
ff6a
ffda
0017
0114
fefb
0039
ffde
0033
ffe8
0090
0059
0020
ffd0
001a
fe5e
ffb5
0007
0031
ff2a
ff7d
001f
0083
fee1
fe00
ff54
ffdc
ff95
005e
ffc4
ffcb
00c8
ffd6
00a4
001d
0010
feee
ffe8
ffa3
0024
005a
ffdc
ffca
ffec
ffab
ff82
ffff
fff2
fffa
ffe7
010d
00ad
0000
0051
fe2b
0026
fe7a
ff49
ffdb
0081
ff9a
ff43
0026
0029
ff16
0034
ff16
ff2e
000c
ffaf
0078
fe8c
ff1b
0004
0089
ff9d
0010
ffb5
ffc9
ff99
ff4e
fdf8
0042
002c
ffdd
ffa4
ffd4
0053
fed3
006a
ffac
ffa8
004c
ff93
ffd4
ff7b
ff25
